{
  "version": "1.0",
  "truncation": null,
  "padding": null,
  "added_tokens": [
    {
      "id": 0,
      "content": "[PAD]",
      "single_word": false,
      "lstrip": false,
      "rstrip": false,
      "normalized": false,
      "special": true
    },
    {
      "id": 1,
      "content": "[UNK]",
      "single_word": false,
      "lstrip": false,
      "rstrip": false,
      "normalized": false,
      "special": true
    },
    {
      "id": 2,
      "content": "[BOS]",
      "single_word": false,
      "lstrip": false,
      "rstrip": false,
      "normalized": false,
      "special": true
    },
    {
      "id": 3,
      "content": "[EOS]",
      "single_word": false,
      "lstrip": false,
      "rstrip": false,
      "normalized": false,
      "special": true
    }
  ],
  "normalizer": null,
  "pre_tokenizer": {
    "type": "Whitespace"
  },
  "post_processor": {
    "type": "TemplateProcessing",
    "single": [
      {
        "SpecialToken": {
          "id": "[BOS]",
          "type_id": 0
        }
      },
      {
        "Sequence": {
          "id": "A",
          "type_id": 0
        }
      },
      {
        "SpecialToken": {
          "id": "[EOS]",
          "type_id": 0
        }
      }
    ],
    "pair": [
      {
        "Sequence": {
          "id": "A",
          "type_id": 0
        }
      },
      {
        "Sequence": {
          "id": "B",
          "type_id": 1
        }
      }
    ],
    "special_tokens": {
      "[BOS]": {
        "id": "[BOS]",
        "ids": [
          2
        ],
        "tokens": [
          "[BOS]"
        ]
      },
      "[EOS]": {
        "id": "[EOS]",
        "ids": [
          3
        ],
        "tokens": [
          "[EOS]"
        ]
      }
    }
  },
  "decoder": null,
  "model": {
    "type": "BPE",
    "dropout": null,
    "unk_token": "[UNK]",
    "continuing_subword_prefix": null,
    "end_of_word_suffix": null,
    "fuse_unk": false,
    "byte_fallback": false,
    "ignore_merges": false,
    "vocab": {
      "[PAD]": 0,
      "[UNK]": 1,
      "[BOS]": 2,
      "[EOS]": 3,
      "!": 4,
      "\"": 5,
      "#": 6,
      "$": 7,
      "%": 8,
      "&": 9,
      "'": 10,
      "(": 11,
      ")": 12,
      "*": 13,
      "+": 14,
      ",": 15,
      "-": 16,
      ".": 17,
      "/": 18,
      "0": 19,
      "1": 20,
      "2": 21,
      "3": 22,
      "4": 23,
      "5": 24,
      "6": 25,
      "7": 26,
      "8": 27,
      "9": 28,
      ":": 29,
      ";": 30,
      "=": 31,
      ">": 32,
      "?": 33,
      "@": 34,
      "[": 35,
      "\\": 36,
      "]": 37,
      "_": 38,
      "`": 39,
      "a": 40,
      "b": 41,
      "c": 42,
      "d": 43,
      "e": 44,
      "f": 45,
      "g": 46,
      "h": 47,
      "i": 48,
      "j": 49,
      "k": 50,
      "l": 51,
      "m": 52,
      "n": 53,
      "o": 54,
      "p": 55,
      "q": 56,
      "r": 57,
      "s": 58,
      "t": 59,
      "u": 60,
      "v": 61,
      "w": 62,
      "x": 63,
      "y": 64,
      "z": 65,
      "in": 66,
      "th": 67,
      "an": 68,
      "ing": 69,
      "on": 70,
      "er": 71,
      "ar": 72,
      "at": 73,
      "le": 74,
      "it": 75,
      "and": 76,
      "of": 77,
      "the": 78,
      "re": 79,
      "to": 80,
      "is": 81,
      "wi": 82,
      "ro": 83,
      "with": 84,
      "st": 85,
      "en": 86,
      "al": 87,
      "om": 88,
      "ch": 89,
      "ra": 90,
      "la": 91,
      "ed": 92,
      "ou": 93,
      "es": 94,
      "ck": 95,
      "ow": 96,
      "ld": 97,
      "or": 98,
      "et": 99,
      "bo": 100,
      "man": 101,
      "ir": 102,
      "id": 103,
      "se": 104,
      "lo": 105,
      "all": 106,
      "sit": 107,
      "ting": 108,
      "ne": 109,
      "wo": 110,
      "ba": 111,
      "ple": 112,
      "ge": 113,
      "wh": 114,
      "pe": 115,
      "be": 116,
      "ho": 117,
      "ta": 118,
      "stand": 119,
      "sitting": 120,
      "are": 121,
      "ig": 122,
      "up": 123,
      "ers": 124,
      "ard": 125,
      "ic": 126,
      "ss": 127,
      "un": 128,
      "two": 129,
      "sk": 130,
      "lay": 131,
      "sh": 132,
      "ite": 133,
      "top": 134,
      "king": 135,
      "ble": 136,
      "lding": 137,
      "ver": 138,
      "tra": 139,
      "standing": 140,
      "ur": 141,
      "ll": 142,
      "peo": 143,
      "people": 144,
      "ad": 145,
      "board": 146,
      "ide": 147,
      "ate": 148,
      "fr": 149,
      "oun": 150,
      "ther": 151,
      "pl": 152,
      "ie": 153,
      "wom": 154,
      "bu": 155,
      "xt": 156,
      "do": 157,
      "room": 158,
      "next": 159,
      "white": 160,
      "as": 161,
      "ce": 162,
      "play": 163,
      "ve": 164,
      "woman": 165,
      "ts": 166,
      "gro": 167,
      "air": 168,
      "par": 169,
      "ome": 170,
      "od": 171,
      "dow": 172,
      "ile": 173,
      "table": 174,
      "stre": 175,
      "street": 176,
      "ff": 177,
      "some": 178,
      "co": 179,
      "gra": 180,
      "that": 181,
      "ball": 182,
      "ter": 183,
      "holding": 184,
      "pers": 185,
      "lar": 186,
      "sm": 187,
      "il": 188,
      "person": 189,
      "ph": 190,
      "one": 191,
      "side": 192,
      "ri": 193,
      "wal": 194,
      "ca": 195,
      "large": 196,
      "clo": 197,
      "cou": 198,
      "ke": 199,
      "ten": 200,
      "cat": 201,
      "down": 202,
      "wa": 203,
      "rid": 204,
      "wat": 205,
      "ont": 206,
      "by": 207,
      "um": 208,
      "pa": 209,
      "und": 210,
      "lu": 211,
      "ach": 212,
      "dog": 213,
      "red": 214,
      "po": 215,
      "group": 216,
      "fl": 217,
      "ion": 218,
      "car": 219,
      "sn": 220,
      "fie": 221,
      "field": 222,
      "igh": 223,
      "am": 224,
      "mo": 225,
      "fo": 226,
      "snow": 227,
      "near": 228,
      "small": 229,
      "pi": 230,
      "nis": 231,
      "train": 232,
      "ign": 233,
      "bla": 234,
      "front": 235,
      "park": 236,
      "his": 237,
      "tennis": 238,
      "black": 239,
      "sur": 240,
      "li": 241,
      "for": 242,
      "ree": 243,
      "sign": 244,
      "row": 245,
      "ant": 246,
      "plate": 247,
      "ying": 248,
      "riding": 249,
      "loo": 250,
      "skate": 251,
      "ure": 252,
      "grass": 253,
      "kit": 254,
      "oung": 255,
      "bus": 256,
      "other": 257,
      "young": 258,
      "water": 259,
      "cle": 260,
      "ru": 261,
      "ele": 262,
      "base": 263,
      "bath": 264,
      "we": 265,
      "surf": 266,
      "pu": 267,
      "ving": 268,
      "men": 269,
      "out": 270,
      "bed": 271,
      "baseball": 272,
      "com": 273,
      "bui": 274,
      "gre": 275,
      "building": 276,
      "ink": 277,
      "eat": 278,
      "has": 279,
      "playing": 280,
      "gi": 281,
      "im": 282,
      "while": 283,
      "walking": 284,
      "win": 285,
      "bathroom": 286,
      "skateboard": 287,
      "her": 288,
      "zz": 289,
      "food": 290,
      "blu": 291,
      "hor": 292,
      "blue": 293,
      "pizz": 294,
      "ight": 295,
      "back": 296,
      "wood": 297,
      "tor": 298,
      "chen": 299,
      "kitchen": 300,
      "bre": 301,
      "ycle": 302,
      "green": 303,
      "plan": 304,
      "ee": 305,
      "boy": 306,
      "there": 307,
      "dy": 308,
      "gira": 309,
      "giraff": 310,
      "pizza": 311,
      "parked": 312,
      "looking": 313,
      "uit": 314,
      "gh": 315,
      "ct": 316,
      "he": 317,
      "ski": 318,
      "road": 319,
      "motor": 320,
      "ut": 321,
      "pic": 322,
      "ben": 323,
      "over": 324,
      "tle": 325,
      "des": 326,
      "beach": 327,
      "eleph": 328,
      "ity": 329,
      "aring": 330,
      "cks": 331,
      "toile": 332,
      "chi": 333,
      "age": 334,
      "bear": 335,
      "couple": 336,
      "gir": 337,
      "lap": 338,
      "girl": 339,
      "three": 340,
      "de": 341,
      "ground": 342,
      "toilet": 343,
      "ze": 344,
      "op": 345,
      "ture": 346,
      "ame": 347,
      "dr": 348,
      "clock": 349,
      "irt": 350,
      "lla": 351,
      "llow": 352,
      "led": 353,
      "city": 354,
      "ma": 355,
      "dis": 356,
      "fro": 357,
      "umbre": 358,
      "motorc": 359,
      "umbrella": 360,
      "picture": 361,
      "walk": 362,
      "flying": 363,
      "ted": 364,
      "plane": 365,
      "lass": 366,
      "bench": 367,
      "te": 368,
      "wearing": 369,
      "ong": 370,
      "bra": 371,
      "ul": 372,
      "phone": 373,
      "player": 374,
      "motorcycle": 375,
      "bir": 376,
      "laptop": 377,
      "ugh": 378,
      "way": 379,
      "old": 380,
      "game": 381,
      "glass": 382,
      "ind": 383,
      "ped": 384,
      "sever": 385,
      "fi": 386,
      "several": 387,
      "child": 388,
      "zebra": 389,
      "laying": 390,
      "compu": 391,
      "from": 392,
      "off": 393,
      "sits": 394,
      "get": 395,
      "ice": 396,
      "tain": 397,
      "ound": 398,
      "boat": 399,
      "sand": 400,
      "ye": 401,
      "rough": 402,
      "wooden": 403,
      "ent": 404,
      "rown": 405,
      "tow": 406,
      "fe": 407,
      "window": 408,
      "sink": 409,
      "tru": 410,
      "ping": 411,
      "horse": 412,
      "area": 413,
      "chair": 414,
      "cake": 415,
      "through": 416,
      "their": 417,
      "wall": 418,
      "bee": 419,
      "brown": 420,
      "fris": 421,
      "hand": 422,
      "around": 423,
      "eating": 424,
      "yellow": 425,
      "con": 426,
      "di": 427,
      "lit": 428,
      "stop": 429,
      "bat": 430,
      "mp": 431,
      "bird": 432,
      "show": 433,
      "computer": 434,
      "desk": 435,
      "cro": 436,
      "frisbee": 437,
      "ban": 438,
      "pho": 439,
      "giraffe": 440,
      "photo": 441,
      "close": 442,
      "ap": 443,
      "under": 444,
      "cover": 445,
      "open": 446,
      "ay": 447,
      "outs": 448,
      "sing": 449,
      "tre": 450,
      "outside": 451,
      "ang": 452,
      "cket": 453,
      "qu": 454,
      "truck": 455,
      "flo": 456,
      "living": 457,
      "rest": 458,
      "per": 459,
      "fire": 460,
      "bow": 461,
      "ty": 462,
      "cross": 463,
      "cor": 464,
      "suit": 465,
      "surfboard": 466,
      "ill": 467,
      "very": 468,
      "sc": 469,
      "ses": 470,
      "bun": 471,
      "covered": 472,
      "coun": 473,
      "tree": 474,
      "trees": 475,
      "its": 476,
      "cow": 477,
      "run": 478,
      "each": 479,
      "flow": 480,
      "go": 481,
      "many": 482,
      "cour": 483,
      "door": 484,
      "elephant": 485,
      "illed": 486,
      "ly": 487,
      "cell": 488,
      "ation": 489,
      "hind": 490,
      "fa": 491,
      "banan": 492,
      "this": 493,
      "wing": 494,
      "behind": 495,
      "sto": 496,
      "bowl": 497,
      "light": 498,
      "gg": 499,
      "wave": 500,
      "filled": 501,
      "read": 502,
      "sky": 503,
      "lin": 504,
      "little": 505,
      "bi": 506,
      "eep": 507,
      "ves": 508,
      "ok": 509,
      "met": 510,
      "cut": 511,
      "court": 512,
      "col": 513,
      "fen": 514,
      "pla": 515,
      "into": 516,
      "toge": 517,
      "together": 518,
      "couch": 519,
      "ction": 520,
      "head": 521,
      "kite": 522,
      "day": 523,
      "vie": 524,
      "ange": 525,
      "wich": 526,
      "sandwich": 527,
      "sho": 528,
      "bunch": 529,
      "moun": 530,
      "background": 531,
      "view": 532,
      "dri": 533,
      "pre": 534,
      "rick": 535,
      "inside": 536,
      "skis": 537,
      "watch": 538,
      "ag": 539,
      "dou": 540,
      "big": 541,
      "sheep": 542,
      "floor": 543,
      "mir": 544,
      "able": 545,
      "stands": 546,
      "ort": 547,
      "mirro": 548,
      "mirror": 549,
      "pie": 550,
      "form": 551,
      "oce": 552,
      "ocean": 553,
      "hy": 554,
      "hill": 555,
      "shirt": 556,
      "look": 557,
      "pass": 558,
      "ffic": 559,
      "counter": 560,
      "sl": 561,
      "bl": 562,
      "ull": 563,
      "traffic": 564,
      "veget": 565,
      "br": 566,
      "hydr": 567,
      "ti": 568,
      "mid": 569,
      "el": 570,
      "set": 571,
      "dle": 572,
      "swing": 573,
      "airplane": 574,
      "hydrant": 575,
      "che": 576,
      "fence": 577,
      "racket": 578,
      "teddy": 579,
      "display": 580,
      "vegetable": 581,
      "va": 582,
      "ants": 583,
      "stu": 584,
      "les": 585,
      "orange": 586,
      "jum": 587,
      "diff": 588,
      "women": 589,
      "differ": 590,
      "snowboard": 591,
      "another": 592,
      "sidewalk": 593,
      "dirt": 594,
      "sa": 595,
      "different": 596,
      "anim": 597,
      "ner": 598,
      "ouse": 599,
      "mer": 600,
      "lot": 601,
      "eng": 602,
      "animal": 603,
      "flowers": 604,
      "mountain": 605,
      "iling": 606,
      "our": 607,
      "tower": 608,
      "tall": 609,
      "ser": 610,
      "fruit": 611,
      "tracks": 612,
      "so": 613,
      "full": 614,
      "vase": 615,
      "parking": 616,
      "horses": 617,
      "ment": 618,
      "plat": 619,
      "cars": 620,
      "tu": 621,
      "giraffes": 622,
      "along": 623,
      "baby": 624,
      "tie": 625,
      "sun": 626,
      "bro": 627,
      "vegetables": 628,
      "ful": 629,
      "ren": 630,
      "past": 631,
      "ven": 632,
      "gu": 633,
      "ies": 634,
      "hang": 635,
      "ator": 636,
      "grassy": 637,
      "being": 638,
      "hold": 639,
      "hot": 640,
      "hit": 641,
      "zebras": 642,
      "stuff": 643,
      "station": 644,
      "elephants": 645,
      "ous": 646,
      "vel": 647,
      "no": 648,
      "slo": 649,
      "cup": 650,
      "ari": 651,
      "bananas": 652,
      "book": 653,
      "middle": 654,
      "dre": 655,
      "tr": 656,
      "glasses": 657,
      "ha": 658,
      "dress": 659,
      "me": 660,
      "ain": 661,
      "bike": 662,
      "ready": 663,
      "kes": 664,
      "cer": 665,
      "wor": 666,
      "box": 667,
      "key": 668,
      "sp": 669,
      "image": 670,
      "ark": 671,
      "urn": 672,
      "four": 673,
      "thing": 674,
      "vari": 675,
      "color": 676,
      "taking": 677,
      "hat": 678,
      "crow": 679,
      "bes": 680,
      "ets": 681,
      "signs": 682,
      "zing": 683,
      "uring": 684,
      "ated": 685,
      "ggage": 686,
      "crowd": 687,
      "ces": 688,
      "driving": 689,
      "stuffed": 690,
      "pro": 691,
      "slope": 692,
      "long": 693,
      "them": 694,
      "don": 695,
      "mu": 696,
      "piece": 697,
      "ade": 698,
      "catch": 699,
      "wine": 700,
      "abo": 701,
      "rush": 702,
      "above": 703,
      "cco": 704,
      "iger": 705,
      "brocco": 706,
      "bot": 707,
      "guy": 708,
      "brush": 709,
      "broccoli": 710,
      "luggage": 711,
      "vis": 712,
      "across": 713,
      "grazing": 714,
      "refr": 715,
      "cows": 716,
      "travel": 717,
      "beside": 718,
      "case": 719,
      "uts": 720,
      "male": 721,
      "skiing": 722,
      "bic": 723,
      "refriger": 724,
      "kid": 725,
      "ms": 726,
      "refrigerator": 727,
      "snowy": 728,
      "tal": 729,
      "herd": 730,
      "ched": 731,
      "wii": 732,
      "cl": 733,
      "mon": 734,
      "hanging": 735,
      "lea": 736,
      "camer": 737,
      "ber": 738,
      "mat": 739,
      "pair": 740,
      "during": 741,
      "iting": 742,
      "holds": 743,
      "roll": 744,
      "double": 745,
      "camera": 746,
      "ps": 747,
      "pink": 748,
      "oth": 749,
      "ol": 750,
      "port": 751,
      "emp": 752,
      "prepar": 753,
      "children": 754,
      "doing": 755,
      "cont": 756,
      "dogs": 757,
      "ese": 758,
      "buildings": 759,
      "inter": 760,
      "pole": 761,
      "round": 762,
      "ning": 763,
      "passeng": 764,
      "decor": 765,
      "keyboard": 766,
      "oven": 767,
      "bin": 768,
      "cker": 769,
      "empty": 770,
      "boats": 771,
      "high": 772,
      "cur": 773,
      "bicycle": 774,
      "ligh": 775,
      "corner": 776,
      "going": 777,
      "ding": 778,
      "looks": 779,
      "paper": 780,
      "umbrellas": 781,
      "stove": 782,
      "cutting": 783,
      "track": 784,
      "who": 785,
      "ine": 786,
      "rac": 787,
      "watching": 788,
      "kites": 789,
      "bag": 790,
      "tele": 791,
      "soc": 792,
      "vision": 793,
      "trick": 794,
      "pit": 795,
      "jumping": 796,
      "television": 797,
      "pot": 798,
      "chairs": 799,
      "smiling": 800,
      "remo": 801,
      "posing": 802,
      "bottle": 803,
      "vide": 804,
      "din": 805,
      "apple": 806,
      "soccer": 807,
      "stri": 808,
      "talking": 809,
      "lling": 810,
      "pan": 811,
      "tub": 812,
      "clos": 813,
      "airport": 814,
      "video": 815,
      "traveling": 816,
      "tv": 817,
      "using": 818,
      "line": 819,
      "colorful": 820,
      "body": 821,
      "swinging": 822,
      "can": 823,
      "lee": 824,
      "ess": 825,
      "ors": 826,
      "birds": 827,
      "topped": 828,
      "various": 829,
      "lady": 830,
      "su": 831,
      "animals": 832,
      "getting": 833,
      "contain": 834,
      "clu": 835,
      "ab": 836,
      "rail": 837,
      "cabin": 838,
      "pain": 839,
      "house": 840,
      "night": 841,
      "ip": 842,
      "carr": 843,
      "cho": 844,
      "home": 845,
      "plates": 846,
      "shel": 847,
      "bar": 848,
      "again": 849,
      "ste": 850,
      "against": 851,
      "pitch": 852,
      "coff": 853,
      "cheese": 854,
      "brick": 855,
      "sil": 856,
      "quet": 857,
      "throw": 858,
      "coffee": 859,
      "jet": 860,
      "ick": 861,
      "made": 862,
      "meat": 863,
      "ak": 864,
      "banana": 865,
      "river": 866,
      "lots": 867,
      "carrying": 868,
      "lights": 869,
      "him": 870,
      "waiting": 871,
      "cked": 872,
      "motorcycles": 873,
      "tray": 874,
      "someone": 875,
      "bedroom": 876,
      "slee": 877,
      "section": 878,
      "something": 879,
      "ating": 880,
      "rain": 881,
      "kn": 882,
      "resta": 883,
      "dish": 884,
      "restaur": 885,
      "ian": 886,
      "adul": 887,
      "ced": 888,
      "drink": 889,
      "du": 890,
      "restaurant": 891,
      "land": 892,
      "bears": 893,
      "outh": 894,
      "end": 895,
      "num": 896,
      "clou": 897,
      "remote": 898,
      "shower": 899,
      "metal": 900,
      "players": 901,
      "decker": 902,
      "alf": 903,
      "face": 904,
      "skateboarder": 905,
      "runway": 906,
      "tile": 907,
      "about": 908,
      "iss": 909,
      "outdoor": 910,
      "toy": 911,
      "items": 912,
      "mic": 913,
      "racquet": 914,
      "ramp": 915,
      "skier": 916,
      "ry": 917,
      "carro": 918,
      "surround": 919,
      "ft": 920,
      "enclos": 921,
      "surfer": 922,
      "dough": 923,
      "scre": 924,
      "running": 925,
      "ank": 926,
      "pile": 927,
      "slic": 928,
      "micro": 929,
      "busy": 930,
      "ga": 931,
      "ases": 932,
      "us": 933,
      "screen": 934,
      "store": 935,
      "pur": 936,
      "lored": 937,
      "surfing": 938,
      "like": 939,
      "cre": 940,
      "hel": 941,
      "hands": 942,
      "ja": 943,
      "passenger": 944,
      "ans": 945,
      "lying": 946,
      "mouth": 947,
      "she": 948,
      "graph": 949,
      "intersection": 950,
      "dressed": 951,
      "ath": 952,
      "ial": 953,
      "ones": 954,
      "doughn": 955,
      "toward": 956,
      "ue": 957,
      "ish": 958,
      "monit": 959,
      "half": 960,
      "pes": 961,
      "arm": 962,
      "suitcase": 963,
      "brid": 964,
      "ju": 965,
      "photograph": 966,
      "pet": 967,
      "ters": 968,
      "eel": 969,
      "mod": 970,
      "batter": 971,
      "kni": 972,
      "rock": 973,
      "slice": 974,
      "seat": 975,
      "shown": 976,
      "sciss": 977,
      "preparing": 978,
      "oo": 979,
      "dark": 980,
      "sel": 981,
      "rides": 982,
      "uni": 983,
      "post": 984,
      "colored": 985,
      "place": 986,
      "pulling": 987,
      "raw": 988,
      "veh": 989,
      "gray": 990,
      "scissors": 991,
      "turn": 992,
      "vehic": 993,
      "bridge": 994,
      "silver": 995,
      "sleeping": 996,
      "jacket": 997,
      "number": 998,
      "ance": 999,
      "donuts": 1000,
      "tooth": 1001,
      "zoo": 1002,
      "ny": 1003,
      "gs": 1004,
      "work": 1005,
      "enclosure": 1006,
      "controll": 1007,
      "low": 1008,
      "kids": 1009,
      "spe": 1010,
      "bet": 1011,
      "ries": 1012,
      "mark": 1013,
      "ist": 1014,
      "knife": 1015,
      "hair": 1016,
      "ex": 1017,
      "bread": 1018,
      "jo": 1019,
      "surrounded": 1020,
      "bask": 1021,
      "mul": 1022,
      "meal": 1023,
      "sty": 1024,
      "microwave": 1025,
      "ween": 1026,
      "sha": 1027,
      "coo": 1028,
      "forest": 1029,
      "between": 1030,
      "aning": 1031,
      "showing": 1032,
      "lined": 1033,
      "adult": 1034,
      "carrots": 1035,
      "bright": 1036,
      "coming": 1037,
      "decorated": 1038,
      "boys": 1039,
      "lake": 1040,
      "shelf": 1041,
      "tim": 1042,
      "sal": 1043,
      "few": 1044,
      "flower": 1045,
      "der": 1046,
      "cook": 1047,
      "uniform": 1048,
      "mouse": 1049,
      "anch": 1050,
      "cabinets": 1051,
      "buses": 1052,
      "older": 1053,
      "cu": 1054,
      "walks": 1055,
      "fork": 1056,
      "ved": 1057,
      "scen": 1058,
      "pen": 1059,
      "ars": 1060,
      "skiers": 1061,
      "atta": 1062,
      "hu": 1063,
      "furn": 1064,
      "cand": 1065,
      "anges": 1066,
      "blank": 1067,
      "si": 1068,
      "purple": 1069,
      "iture": 1070,
      "je": 1071,
      "sta": 1072,
      "furniture": 1073,
      "oes": 1074,
      "art": 1075,
      "grey": 1076,
      "branch": 1077,
      "oranges": 1078,
      "waves": 1079,
      "girls": 1080,
      "pr": 1081,
      "wet": 1082,
      "stat": 1083,
      "stone": 1084,
      "tri": 1085,
      "planes": 1086,
      "stic": 1087,
      "rol": 1088,
      "gather": 1089,
      "pillow": 1090,
      "try": 1091,
      "have": 1092,
      "fla": 1093,
      "cloudy": 1094,
      "attached": 1095,
      "displayed": 1096,
      "chocol": 1097,
      "throwing": 1098,
      "ast": 1099,
      "chocolate": 1100,
      "onto": 1101,
      "phones": 1102,
      "time": 1103,
      "part": 1104,
      "monitor": 1105,
      "fre": 1106,
      "van": 1107,
      "clean": 1108,
      "pol": 1109,
      "ily": 1110,
      "making": 1111,
      "lush": 1112,
      "feed": 1113,
      "leaning": 1114,
      "windows": 1115,
      "crossing": 1116,
      "pick": 1117,
      "meter": 1118,
      "shop": 1119,
      "helmet": 1120,
      "inclu": 1121,
      "yard": 1122,
      "multi": 1123,
      "market": 1124,
      "stick": 1125,
      "dining": 1126,
      "inking": 1127,
      "lamp": 1128,
      "elect": 1129,
      "scene": 1130,
      "painted": 1131,
      "salad": 1132,
      "electr": 1133,
      "fore": 1134,
      "ern": 1135,
      "cats": 1136,
      "let": 1137,
      "ds": 1138,
      "birth": 1139,
      "ive": 1140,
      "rocks": 1141,
      "country": 1142,
      "wel": 1143,
      "drinking": 1144,
      "seen": 1145,
      "basket": 1146,
      "aut": 1147,
      "hitting": 1148,
      "birthday": 1149,
      "pat": 1150,
      "apples": 1151,
      "perform": 1152,
      "resting": 1153,
      "enter": 1154,
      "tee": 1155,
      "walls": 1156,
      "ot": 1157,
      "female": 1158,
      "ken": 1159,
      "nice": 1160,
      "ass": 1161,
      "gar": 1162,
      "towards": 1163,
      "fruits": 1164,
      "edge": 1165,
      "clear": 1166,
      "zed": 1167,
      "office": 1168,
      "ob": 1169,
      "tables": 1170,
      "blic": 1171,
      "ref": 1172,
      "stru": 1173,
      "trail": 1174,
      "public": 1175,
      "bikes": 1176,
      "beaut": 1177,
      "sunny": 1178,
      "pack": 1179,
      "fries": 1180,
      "setting": 1181,
      "books": 1182,
      "squ": 1183,
      "boards": 1184,
      "ace": 1185,
      "beauti": 1186,
      "shore": 1187,
      "blanket": 1188,
      "plastic": 1189,
      "cing": 1190,
      "sof": 1191,
      "self": 1192,
      "ary": 1193,
      "moving": 1194,
      "leaves": 1195,
      "inten": 1196,
      "police": 1197,
      "town": 1198,
      "ching": 1199,
      "towel": 1200,
      "stopped": 1201,
      "tomat": 1202,
      "surfboards": 1203,
      "sau": 1204,
      "tter": 1205,
      "just": 1206,
      "been": 1207,
      "aching": 1208,
      "snowboarder": 1209,
      "min": 1210,
      "fresh": 1211,
      "mountains": 1212,
      "teeth": 1213,
      "path": 1214,
      "enjo": 1215,
      "beautiful": 1216,
      "neath": 1217,
      "pictures": 1218,
      "working": 1219,
      "ride": 1220,
      "platform": 1221,
      "tel": 1222,
      "mar": 1223,
      "smile": 1224,
      "bal": 1225,
      "load": 1226,
      "donut": 1227,
      "toothbrush": 1228,
      "pped": 1229,
      "sub": 1230,
      "statue": 1231,
      "lection": 1232,
      "underneath": 1233,
      "sid": 1234,
      "fri": 1235,
      "trying": 1236,
      "ere": 1237,
      "slices": 1238,
      "topping": 1239,
      "bush": 1240,
      "shot": 1241,
      "bor": 1242,
      "ety": 1243,
      "cart": 1244,
      "fam": 1245,
      "wild": 1246,
      "control": 1247,
      "gr": 1248,
      "controller": 1249,
      "cra": 1250,
      "mi": 1251,
      "ally": 1252,
      "plant": 1253,
      "carri": 1254,
      "pieces": 1255,
      "placed": 1256,
      "having": 1257,
      "skateboarding": 1258,
      "poin": 1259,
      "af": 1260,
      "orts": 1261,
      "computers": 1262,
      "shows": 1263,
      "perched": 1264,
      "mac": 1265,
      "new": 1266,
      "eaten": 1267,
      "ger": 1268,
      "cellphone": 1269,
      "passing": 1270,
      "mil": 1271,
      "pep": 1272,
      "catcher": 1273,
      "tar": 1274,
      "dire": 1275,
      "wire": 1276,
      "dry": 1277,
      "spa": 1278,
      "py": 1279,
      "appl": 1280,
      "hotel": 1281,
      "put": 1282,
      "mb": 1283,
      "vehicle": 1284,
      "surface": 1285,
      "cooking": 1286,
      "flat": 1287,
      "sandy": 1288,
      "vases": 1289,
      "dinner": 1290,
      "they": 1291,
      "dist": 1292,
      "reading": 1293,
      "spo": 1294,
      "modern": 1295,
      "family": 1296,
      "als": 1297,
      "fast": 1298,
      "neck": 1299,
      "cakes": 1300,
      "trains": 1301,
      "laptops": 1302,
      "applian": 1303,
      "doughnut": 1304,
      "iti": 1305,
      "beer": 1306,
      "tiled": 1307,
      "pizzas": 1308,
      "chick": 1309,
      "sauce": 1310,
      "types": 1311,
      "cases": 1312,
      "brushing": 1313,
      "pitcher": 1314,
      "swi": 1315,
      "engine": 1316,
      "pad": 1317,
      "right": 1318,
      "trun": 1319,
      "benches": 1320,
      "ond": 1321,
      "ninten": 1322,
      "toppings": 1323,
      "single": 1324,
      "others": 1325,
      "multiple": 1326,
      "trunk": 1327,
      "nintendo": 1328,
      "watches": 1329,
      "potat": 1330,
      "doughnuts": 1331,
      "chicken": 1332,
      "que": 1333,
      "sail": 1334,
      "plants": 1335,
      "ey": 1336,
      "fly": 1337,
      "pret": 1338,
      "graff": 1339,
      "mounted": 1340,
      "kind": 1341,
      "variety": 1342,
      "take": 1343,
      "see": 1344,
      "ley": 1345,
      "trucks": 1346,
      "ming": 1347,
      "well": 1348,
      "wheel": 1349,
      "arr": 1350,
      "draw": 1351,
      "enjoying": 1352,
      "egg": 1353,
      "ons": 1354,
      "jump": 1355,
      "wr": 1356,
      "guys": 1357,
      "curb": 1358,
      "graffiti": 1359,
      "ac": 1360,
      "bowls": 1361,
      "gear": 1362,
      "bathtub": 1363,
      "tarmac": 1364,
      "pretty": 1365,
      "shoes": 1366,
      "distance": 1367,
      "passengers": 1368,
      "where": 1369,
      "woods": 1370,
      "after": 1371,
      "dock": 1372,
      "str": 1373,
      "foot": 1374,
      "performing": 1375,
      "appliances": 1376,
      "cute": 1377,
      "not": 1378,
      "gathered": 1379,
      "desser": 1380,
      "rice": 1381,
      "stair": 1382,
      "shion": 1383,
      "bit": 1384,
      "break": 1385,
      "tricks": 1386,
      "pede": 1387,
      "ling": 1388,
      "fenced": 1389,
      "left": 1390,
      "ional": 1391,
      "containing": 1392,
      "kne": 1393,
      "flies": 1394,
      "vers": 1395,
      "ents": 1396,
      "glo": 1397,
      "pul": 1398,
      "candles": 1399,
      "cy": 1400,
      "wn": 1401,
      "tage": 1402,
      "curtain": 1403,
      "equ": 1404,
      "bags": 1405,
      "five": 1406,
      "less": 1407,
      "serving": 1408,
      "ins": 1409,
      "match": 1410,
      "bottles": 1411,
      "carriage": 1412,
      "team": 1413,
      "onic": 1414,
      "cial": 1415,
      "vin": 1416,
      "sting": 1417,
      "ages": 1418,
      "pasture": 1419,
      "feeding": 1420,
      "railroad": 1421,
      "equip": 1422,
      "fish": 1423,
      "dirty": 1424,
      "center": 1425,
      "lls": 1426,
      "wash": 1427,
      "ures": 1428,
      "concre": 1429,
      "concrete": 1430,
      "feat": 1431,
      "scho": 1432,
      "below": 1433,
      "poles": 1434,
      "cattle": 1435,
      "school": 1436,
      "ions": 1437,
      "swim": 1438,
      "electronic": 1439,
      "drinks": 1440,
      "blo": 1441,
      "including": 1442,
      "rack": 1443,
      "tran": 1444,
      "clutter": 1445,
      "steel": 1446,
      "pillows": 1447,
      "fireplace": 1448,
      "shaped": 1449,
      "takes": 1450,
      "sofa": 1451,
      "striped": 1452,
      "among": 1453,
      "dd": 1454,
      "crowded": 1455,
      "cal": 1456,
      "ise": 1457,
      "vintage": 1458,
      "wra": 1459,
      "iding": 1460,
      "polar": 1461,
      "frid": 1462,
      "urin": 1463,
      "alone": 1464,
      "pulled": 1465,
      "boxes": 1466,
      "mas": 1467,
      "clothe": 1468,
      "nearby": 1469,
      "cooked": 1470,
      "bur": 1471,
      "cream": 1472,
      "beds": 1473,
      "prof": 1474,
      "serve": 1475,
      "sandwiches": 1476,
      "painting": 1477,
      "tour": 1478,
      "fridge": 1479,
      "huge": 1480,
      "served": 1481,
      "catching": 1482,
      "med": 1483,
      "chur": 1484,
      "dishes": 1485,
      "skateboards": 1486,
      "gold": 1487,
      "cking": 1488,
      "but": 1489,
      "direction": 1490,
      "fan": 1491,
      "toast": 1492,
      "obje": 1493,
      "sliced": 1494,
      "church": 1495,
      "whi": 1496,
      "posit": 1497,
      "mess": 1498,
      "style": 1499,
      "feet": 1500,
      "ames": 1501,
      "ler": 1502,
      "stall": 1503,
      "sinks": 1504,
      "container": 1505,
      "cabinet": 1506,
      "doors": 1507,
      "space": 1508,
      "busin": 1509,
      "suitcases": 1510,
      "equipment": 1511,
      "asian": 1512,
      "bicycles": 1513,
      "vehicles": 1514,
      "bs": 1515,
      "both": 1516,
      "deser": 1517,
      "cli": 1518,
      "reaching": 1519,
      "giant": 1520,
      "away": 1521,
      "profess": 1522,
      "bushes": 1523,
      "putting": 1524,
      "ats": 1525,
      "sti": 1526,
      "plays": 1527,
      "cap": 1528,
      "which": 1529,
      "mach": 1530,
      "ural": 1531,
      "clothes": 1532,
      "lone": 1533,
      "poses": 1534,
      "pire": 1535,
      "surfers": 1536,
      "floating": 1537,
      "smo": 1538,
      "tomatoes": 1539,
      "smiles": 1540,
      "wed": 1541,
      "legs": 1542,
      "atop": 1543,
      "taken": 1544,
      "pedestri": 1545,
      "boarding": 1546,
      "sticking": 1547,
      "arrow": 1548,
      "liner": 1549,
      "bak": 1550,
      "lays": 1551,
      "prepares": 1552,
      "professional": 1553,
      "hay": 1554,
      "airplanes": 1555,
      "pose": 1556,
      "potatoes": 1557,
      "por": 1558,
      "stain": 1559,
      "commer": 1560,
      "friend": 1561,
      "spoon": 1562,
      "orn": 1563,
      "sou": 1564,
      "vent": 1565,
      "staring": 1566,
      "blen": 1567,
      "commercial": 1568,
      "cement": 1569,
      "lder": 1570,
      "ious": 1571,
      "offic": 1572,
      "eling": 1573,
      "foods": 1574,
      "reflection": 1575,
      "unch": 1576,
      "mother": 1577,
      "pool": 1578,
      "dev": 1579,
      "sted": 1580,
      "breakfast": 1581,
      "swe": 1582,
      "chr": 1583,
      "av": 1584,
      "cr": 1585,
      "ward": 1586,
      "fashion": 1587,
      "rench": 1588,
      "backpack": 1589,
      "design": 1590,
      "fall": 1591,
      "shorts": 1592,
      "christ": 1593,
      "ham": 1594,
      "subway": 1595,
      "har": 1596,
      "christmas": 1597,
      "stacked": 1598,
      "business": 1599,
      "appe": 1600,
      "lid": 1601,
      "tion": 1602,
      "rug": 1603,
      "ical": 1604,
      "cloth": 1605,
      "gri": 1606,
      "square": 1607,
      "ear": 1608,
      "flag": 1609,
      "gard": 1610,
      "iny": 1611,
      "straw": 1612,
      "trash": 1613,
      "shelves": 1614,
      "french": 1615,
      "same": 1616,
      "lead": 1617,
      "pow": 1618,
      "cluttered": 1619,
      "dessert": 1620,
      "soup": 1621,
      "kitten": 1622,
      "umpire": 1623,
      "garden": 1624,
      "ists": 1625,
      "highway": 1626,
      "stum": 1627,
      "seated": 1628,
      "urry": 1629,
      "games": 1630,
      "swings": 1631,
      "outdoors": 1632,
      "fun": 1633,
      "hou": 1634,
      "docked": 1635,
      "swimming": 1636,
      "hard": 1637,
      "pepper": 1638,
      "wind": 1639,
      "sunglasses": 1640,
      "ks": 1641,
      "ster": 1642,
      "xing": 1643,
      "clocks": 1644,
      "wedding": 1645,
      "couches": 1646,
      "struction": 1647,
      "blender": 1648,
      "hotdog": 1649,
      "figh": 1650,
      "scoo": 1651,
      "vert": 1652,
      "assort": 1653,
      "assortment": 1654,
      "gate": 1655,
      "adults": 1656,
      "card": 1657,
      "free": 1658,
      "icing": 1659,
      "shir": 1660,
      "ctor": 1661,
      "ium": 1662,
      "hood": 1663,
      "say": 1664,
      "drawn": 1665,
      "stairs": 1666,
      "controllers": 1667,
      "ater": 1668,
      "fra": 1669,
      "shad": 1670,
      "oni": 1671,
      "orted": 1672,
      "sea": 1673,
      "drives": 1674,
      "itary": 1675,
      "hillside": 1676,
      "produ": 1677,
      "kick": 1678,
      "ican": 1679,
      "restroom": 1680,
      "blow": 1681,
      "cts": 1682,
      "roof": 1683,
      "desktop": 1684,
      "ceiling": 1685,
      "race": 1686,
      "ledge": 1687,
      "use": 1688,
      "ycl": 1689,
      "rocky": 1690,
      "military": 1691,
      "net": 1692,
      "onions": 1693,
      "coat": 1694,
      "flock": 1695,
      "urban": 1696,
      "iv": 1697,
      "eyes": 1698,
      "bb": 1699,
      "appro": 1700,
      "berries": 1701,
      "lawn": 1702,
      "does": 1703,
      "wooded": 1704,
      "tou": 1705,
      "temp": 1706,
      "facing": 1707,
      "skies": 1708,
      "stainless": 1709,
      "cess": 1710,
      "jumps": 1711,
      "cted": 1712,
      "sup": 1713,
      "farm": 1714,
      "eats": 1715,
      "sort": 1716,
      "star": 1717,
      "nic": 1718,
      "things": 1719,
      "len": 1720,
      "todd": 1721,
      "lines": 1722,
      "ates": 1723,
      "clouds": 1724,
      "pointing": 1725,
      "arrang": 1726,
      "desert": 1727,
      "cups": 1728,
      "bage": 1729,
      "au": 1730,
      "used": 1731,
      "assorted": 1732,
      "chop": 1733,
      "before": 1734,
      "nap": 1735,
      "sca": 1736,
      "ative": 1737,
      "compet": 1738,
      "mit": 1739,
      "arms": 1740,
      "fit": 1741,
      "eggs": 1742,
      "lunch": 1743,
      "partment": 1744,
      "ung": 1745,
      "most": 1746,
      "closeup": 1747,
      "suits": 1748,
      "cir": 1749,
      "event": 1750,
      "boo": 1751,
      "pal": 1752,
      "make": 1753,
      "spr": 1754,
      "ings": 1755,
      "stret": 1756,
      "reads": 1757,
      "hap": 1758,
      "kin": 1759,
      "ery": 1760,
      "neat": 1761,
      "glove": 1762,
      "ches": 1763,
      "steps": 1764,
      "construction": 1765,
      "ties": 1766,
      "advert": 1767,
      "tan": 1768,
      "boarder": 1769,
      "says": 1770,
      "fashioned": 1771,
      "tied": 1772,
      "mini": 1773,
      "fig": 1774,
      "pra": 1775,
      "type": 1776,
      "rackets": 1777,
      "tom": 1778,
      "party": 1779,
      "toddler": 1780,
      "arranged": 1781,
      "attemp": 1782,
      "costum": 1783,
      "teen": 1784,
      "dra": 1785,
      "pond": 1786,
      "picnic": 1787,
      "pots": 1788,
      "snowboarding": 1789,
      "closed": 1790,
      "veg": 1791,
      "ilt": 1792,
      "cage": 1793,
      "floors": 1794,
      "broken": 1795,
      "what": 1796,
      "parti": 1797,
      "decoration": 1798,
      "landing": 1799,
      "hi": 1800,
      "monitors": 1801,
      "cture": 1802,
      "steam": 1803,
      "friends": 1804,
      "overlooking": 1805,
      "wide": 1806,
      "graze": 1807,
      "chef": 1808,
      "kneeling": 1809,
      "lic": 1810,
      "aches": 1811,
      "anti": 1812,
      "sides": 1813,
      "narrow": 1814,
      "plain": 1815,
      "bottom": 1816,
      "io": 1817,
      "tes": 1818,
      "pasta": 1819,
      "must": 1820,
      "leash": 1821,
      "messy": 1822,
      "ship": 1823,
      "rider": 1824,
      "overhead": 1825,
      "loaded": 1826,
      "gies": 1827,
      "chain": 1828,
      "colors": 1829,
      "gen": 1830,
      "stra": 1831,
      "skating": 1832,
      "himself": 1833,
      "sale": 1834,
      "machine": 1835,
      "ripe": 1836,
      "ket": 1837,
      "bever": 1838,
      "trailer": 1839,
      "fancy": 1840,
      "ump": 1841,
      "model": 1842,
      "ments": 1843,
      "gets": 1844,
      "xed": 1845,
      "appears": 1846,
      "ines": 1847,
      "doll": 1848,
      "held": 1849,
      "object": 1850,
      "walkway": 1851,
      "pract": 1852,
      "action": 1853,
      "towels": 1854,
      "war": 1855,
      "was": 1856,
      "short": 1857,
      "leather": 1858,
      "sunset": 1859,
      "pants": 1860,
      "still": 1861,
      "smart": 1862,
      "carpet": 1863,
      "transit": 1864,
      "veggies": 1865,
      "shade": 1866,
      "bite": 1867,
      "vest": 1868,
      "cru": 1869,
      "mis": 1870,
      "eled": 1871,
      "speed": 1872,
      "pping": 1873,
      "foreground": 1874,
      "good": 1875,
      "features": 1876,
      "na": 1877,
      "rela": 1878,
      "fully": 1879,
      "partially": 1880,
      "hole": 1881,
      "tail": 1882,
      "drive": 1883,
      "signal": 1884,
      "pastries": 1885,
      "sident": 1886,
      "antique": 1887,
      "ware": 1888,
      "beard": 1889,
      "pier": 1890,
      "wrapped": 1891,
      "pepperoni": 1892,
      "ton": 1893,
      "commu": 1894,
      "mush": 1895,
      "carrot": 1896,
      "baked": 1897,
      "sy": 1898,
      "ane": 1899,
      "allow": 1900,
      "toilets": 1901,
      "photos": 1902,
      "tire": 1903,
      "rope": 1904,
      "ence": 1905,
      "doorway": 1906,
      "mushroom": 1907,
      "burger": 1908,
      "shou": 1909,
      "push": 1910,
      "prope": 1911,
      "stor": 1912,
      "commuter": 1913,
      "ext": 1914,
      "clothing": 1915,
      "bene": 1916,
      "loading": 1917,
      "turned": 1918,
      "scooter": 1919,
      "refle": 1920,
      "ia": 1921,
      "sill": 1922,
      "toys": 1923,
      "device": 1924,
      "palm": 1925,
      "cast": 1926,
      "smoke": 1927,
      "fighter": 1928,
      "beneath": 1929,
      "flip": 1930,
      "winter": 1931,
      "lies": 1932,
      "giving": 1933,
      "tomato": 1934,
      "paddle": 1935,
      "pastry": 1936,
      "racing": 1937,
      "da": 1938,
      "life": 1939,
      "propell": 1940,
      "saus": 1941,
      "gon": 1942,
      "if": 1943,
      "blurry": 1944,
      "kinds": 1945,
      "chin": 1946,
      "tea": 1947,
      "power": 1948,
      "decorative": 1949,
      "sticks": 1950,
      "class": 1951,
      "waits": 1952,
      "houses": 1953,
      "outfit": 1954,
      "chips": 1955,
      "paw": 1956,
      "val": 1957,
      "makes": 1958,
      "fur": 1959,
      "railing": 1960,
      "lift": 1961,
      "opened": 1962,
      "structure": 1963,
      "harbor": 1964,
      "spread": 1965,
      "contains": 1966,
      "pedestrians": 1967,
      "sprink": 1968,
      "own": 1969,
      "ital": 1970,
      "craft": 1971,
      "grill": 1972,
      "potted": 1973,
      "lettu": 1974,
      "rests": 1975,
      "log": 1976,
      "here": 1977,
      "mud": 1978,
      "island": 1979,
      "nish": 1980,
      "petting": 1981,
      "lettuce": 1982,
      "deck": 1983,
      "den": 1984,
      "peppers": 1985,
      "seag": 1986,
      "garage": 1987,
      "includes": 1988,
      "cting": 1989,
      "sheet": 1990,
      "sized": 1991,
      "seagull": 1992,
      "tered": 1993,
      "ctive": 1994,
      "electric": 1995,
      "sed": 1996,
      "..": 1997,
      "apartment": 1998,
      "tank": 1999,
      "stun": 2000,
      "ggy": 2001,
      "position": 2002,
      "ned": 2003,
      "disc": 2004,
      "dies": 2005,
      "containers": 2006,
      "leading": 2007,
      "pipe": 2008,
      "prepared": 2009,
      "sod": 2010,
      "streets": 2011,
      "comfor": 2012,
      "mound": 2013,
      "bunches": 2014,
      "bare": 2015,
      "pon": 2016,
      "zer": 2017,
      "vement": 2018,
      "follow": 2019,
      "bby": 2020,
      "tops": 2021,
      "formation": 2022,
      "vanity": 2023,
      "produce": 2024,
      "happy": 2025,
      "rel": 2026,
      "tive": 2027,
      "nood": 2028,
      "six": 2029,
      "ering": 2030,
      "ols": 2031,
      "stack": 2032,
      "zes": 2033,
      "beans": 2034,
      "leaf": 2035,
      "barn": 2036,
      "heads": 2037,
      "ising": 2038,
      "hats": 2039,
      "papers": 2040,
      "writing": 2041,
      "amer": 2042,
      "scul": 2043,
      "bacon": 2044,
      "upside": 2045,
      "sidential": 2046,
      "tensil": 2047,
      "candle": 2048,
      "milk": 2049,
      "utensil": 2050,
      "sculp": 2051,
      "rural": 2052,
      "pans": 2053,
      "these": 2054,
      "brightly": 2055,
      "residential": 2056,
      "stal": 2057,
      "sheets": 2058,
      "shopping": 2059,
      "gla": 2060,
      "uses": 2061,
      "tiny": 2062,
      "flight": 2063,
      "nose": 2064,
      "mug": 2065,
      "ized": 2066,
      "fin": 2067,
      "return": 2068,
      "juice": 2069,
      "ised": 2070,
      "alongside": 2071,
      "writ": 2072,
      "tur": 2073,
      "pavement": 2074,
      "patio": 2075,
      "urinals": 2076,
      "competit": 2077,
      "groom": 2078,
      "soda": 2079,
      "lamb": 2080,
      "personal": 2081,
      "sw": 2082,
      "meters": 2083,
      "snowboards": 2084,
      "ns": 2085,
      "laid": 2086,
      "frosting": 2087,
      "lemon": 2088,
      "stream": 2089,
      "coll": 2090,
      "remotes": 2091,
      "tent": 2092,
      "rainy": 2093,
      "branches": 2094,
      "gging": 2095,
      "touching": 2096,
      "sculpture": 2097,
      "eye": 2098,
      "erial": 2099,
      "ray": 2100,
      "ette": 2101,
      "smaller": 2102,
      "ducks": 2103,
      "purse": 2104,
      "directions": 2105,
      "ible": 2106,
      "ides": 2107,
      "entr": 2108,
      "aged": 2109,
      "rear": 2110,
      "parade": 2111,
      "riders": 2112,
      "sailing": 2113,
      "goes": 2114,
      "rolling": 2115,
      "chup": 2116,
      "wait": 2117,
      "sport": 2118,
      "climb": 2119,
      "ketchup": 2120,
      "itself": 2121,
      "ornate": 2122,
      "kicking": 2123,
      "cla": 2124,
      "gn": 2125,
      "butter": 2126,
      "bile": 2127,
      "persons": 2128,
      "wetsuit": 2129,
      "displaying": 2130,
      "built": 2131,
      "dresser": 2132,
      "ige": 2133,
      "ladies": 2134,
      "costume": 2135,
      "sna": 2136,
      "pup": 2137,
      "flags": 2138,
      "ivid": 2139,
      "termin": 2140,
      "mobile": 2141,
      "only": 2142,
      "officer": 2143,
      "scape": 2144,
      "elder": 2145,
      "roadway": 2146,
      "motorcycl": 2147,
      "ators": 2148,
      "trays": 2149,
      "enclosed": 2150,
      "mustard": 2151,
      "american": 2152,
      "fer": 2153,
      "far": 2154,
      "noodles": 2155,
      "deep": 2156,
      "tro": 2157,
      "iron": 2158,
      "beige": 2159,
      "spect": 2160,
      "mushrooms": 2161,
      "sausage": 2162,
      "balls": 2163,
      "decorations": 2164,
      "waters": 2165,
      "shoe": 2166,
      "platter": 2167,
      "char": 2168,
      "ico": 2169,
      "sliding": 2170,
      "utensils": 2171,
      "bucket": 2172,
      "greens": 2173,
      "course": 2174,
      "hall": 2175,
      "bull": 2176,
      "uniforms": 2177,
      "fried": 2178,
      "approaching": 2179,
      "gas": 2180,
      "individ": 2181,
      "suppl": 2182,
      "written": 2183,
      "individu": 2184,
      "locat": 2185,
      "pickup": 2186,
      "elderly": 2187,
      "leans": 2188,
      "terminal": 2189,
      "gged": 2190,
      "throws": 2191,
      "sweater": 2192,
      "tless": 2193,
      "bank": 2194,
      "ular": 2195,
      "ature": 2196,
      "semi": 2197,
      "balan": 2198,
      "pine": 2199,
      "collection": 2200,
      "deli": 2201,
      "laugh": 2202,
      "illa": 2203,
      "flu": 2204,
      "san": 2205,
      "sim": 2206,
      "stad": 2207,
      "bou": 2208,
      "ora": 2209,
      "rows": 2210,
      "leg": 2211,
      "hangs": 2212,
      "nel": 2213,
      "bride": 2214,
      "posted": 2215,
      "propeller": 2216,
      "iff": 2217,
      "growing": 2218,
      "posed": 2219,
      "pulls": 2220,
      "pour": 2221,
      "liqu": 2222,
      "paint": 2223,
      "mitt": 2224,
      "beverage": 2225,
      "ired": 2226,
      "indoor": 2227,
      "packed": 2228,
      "paved": 2229,
      "crosswalk": 2230,
      "attempting": 2231,
      "ior": 2232,
      "cons": 2233,
      "goats": 2234,
      "fake": 2235,
      "ded": 2236,
      "comple": 2237,
      "runs": 2238,
      "passes": 2239,
      "tured": 2240,
      "guit": 2241,
      "lamps": 2242,
      "neatly": 2243,
      "stadium": 2244,
      "cycle": 2245,
      "tong": 2246,
      "bel": 2247,
      "sports": 2248,
      "baskets": 2249,
      "pres": 2250,
      "how": 2251,
      "jets": 2252,
      "teleph": 2253,
      "locom": 2254,
      "ffy": 2255,
      "ways": 2256,
      "locomo": 2257,
      "supplies": 2258,
      "cus": 2259,
      "wagon": 2260,
      "flor": 2261,
      "relaxing": 2262,
      "news": 2263,
      "bending": 2264,
      "curled": 2265,
      "curtains": 2266,
      "block": 2267,
      "oli": 2268,
      "roses": 2269,
      "tents": 2270,
      "fing": 2271,
      "gan": 2272,
      "zen": 2273,
      "tax": 2274,
      "cele": 2275,
      "shirtless": 2276,
      "patter": 2277,
      "washer": 2278,
      "missing": 2279,
      "aking": 2280,
      "ient": 2281,
      "siting": 2282,
      "wheels": 2283,
      "sold": 2284,
      "airliner": 2285,
      "handle": 2286,
      "dro": 2287,
      "wires": 2288,
      "locomotive": 2289,
      "aircraft": 2290,
      "father": 2291,
      "ges": 2292,
      "glazed": 2293,
      "spectators": 2294,
      "frame": 2295,
      "shadow": 2296,
      "seum": 2297,
      "ices": 2298,
      "museum": 2299,
      "bul": 2300,
      "motion": 2301,
      "rub": 2302,
      "checker": 2303,
      "duck": 2304,
      "falling": 2305,
      "ging": 2306,
      "oc": 2307,
      "piled": 2308,
      "gentle": 2309,
      "toothbrushes": 2310,
      "electronics": 2311,
      "telephone": 2312,
      "selfie": 2313,
      "performs": 2314,
      "separ": 2315,
      "haired": 2316,
      "soft": 2317,
      "practicing": 2318,
      "celebr": 2319,
      "without": 2320,
      "prote": 2321,
      "ended": 2322,
      "arrange": 2323,
      "guitar": 2324,
      "jeans": 2325,
      "stunt": 2326,
      "fir": 2327,
      "toss": 2328,
      "avy": 2329,
      "floral": 2330,
      "fal": 2331,
      "pt": 2332,
      "shallow": 2333,
      "redi": 2334,
      "corn": 2335,
      "finish": 2336,
      "rot": 2337,
      "organ": 2338,
      "dead": 2339,
      "frisbe": 2340,
      "posite": 2341,
      "you": 2342,
      "pee": 2343,
      "tiles": 2344,
      "dim": 2345,
      "em": 2346,
      "mirrors": 2347,
      "talks": 2348,
      "advertise": 2349,
      "note": 2350,
      "delic": 2351,
      "crou": 2352,
      "band": 2353,
      "also": 2354,
      "eds": 2355,
      "asing": 2356,
      "numer": 2357,
      "marble": 2358,
      "speak": 2359,
      "landscape": 2360,
      "garbage": 2361,
      "shoulder": 2362,
      "mel": 2363,
      "ingredi": 2364,
      "flown": 2365,
      "shirts": 2366,
      "ute": 2367,
      "covering": 2368,
      "cupcakes": 2369,
      "cones": 2370,
      "hotdogs": 2371,
      "homemade": 2372,
      "freezer": 2373,
      "ingredients": 2374,
      "ining": 2375,
      "toaster": 2376,
      "pedestrian": 2377,
      "\".": 2378,
      "steep": 2379,
      "mus": 2380,
      "selling": 2381,
      "paras": 2382,
      "opposite": 2383,
      "cessor": 2384,
      "stem": 2385,
      "mes": 2386,
      "bell": 2387,
      "cool": 2388,
      "images": 2389,
      "holder": 2390,
      "surrounding": 2391,
      "prin": 2392,
      "skateboarders": 2393,
      "rolls": 2394,
      "jetliner": 2395,
      "sniff": 2396,
      "bik": 2397,
      "patch": 2398,
      "bble": 2399,
      "buff": 2400,
      "travels": 2401,
      "workers": 2402,
      "fluffy": 2403,
      "tongue": 2404,
      "objects": 2405,
      "sprinkles": 2406,
      "habit": 2407,
      "pitching": 2408,
      "hits": 2409,
      "ring": 2410,
      "horseback": 2411,
      "muff": 2412,
      "lon": 2413,
      "visible": 2414,
      "ather": 2415,
      "downhill": 2416,
      "fallen": 2417,
      "umin": 2418,
      "press": 2419,
      "mixed": 2420,
      "puppy": 2421,
      "aslee": 2422,
      "counters": 2423,
      "blankets": 2424,
      "pushing": 2425,
      "asleep": 2426,
      "fold": 2427,
      "headphones": 2428,
      "strawberries": 2429,
      "competition": 2430,
      "arrangement": 2431,
      "os": 2432,
      "stuck": 2433,
      "faces": 2434,
      "snowboarders": 2435,
      "ered": 2436,
      "alley": 2437,
      "pictured": 2438,
      "blon": 2439,
      "whole": 2440,
      "mult": 2441,
      "string": 2442,
      "vol": 2443,
      "furnish": 2444,
      "neon": 2445,
      "frosted": 2446,
      "washing": 2447,
      "checkered": 2448,
      "males": 2449,
      "golden": 2450,
      "entrance": 2451,
      "ckey": 2452,
      "gathering": 2453,
      "blonde": 2454,
      "shed": 2455,
      "ballo": 2456,
      "jar": 2457,
      "slopes": 2458,
      "climbing": 2459,
      "item": 2460,
      "urinal": 2461,
      "habitat": 2462,
      "cent": 2463,
      "even": 2464,
      "cargo": 2465,
      "aming": 2466,
      "wears": 2467,
      "stud": 2468,
      "ues": 2469,
      "arch": 2470,
      "reaches": 2471,
      "foil": 2472,
      "conne": 2473,
      "featuring": 2474,
      "range": 2475,
      "stickers": 2476,
      "bbing": 2477,
      "skirt": 2478,
      "someones": 2479,
      "moves": 2480,
      "feeder": 2481,
      "officers": 2482,
      "delicious": 2483,
      "oned": 2484,
      "covers": 2485,
      "london": 2486,
      "shiny": 2487,
      "pouring": 2488,
      "name": 2489,
      "carries": 2490,
      "napkin": 2491,
      "hibit": 2492,
      "first": 2493,
      "dor": 2494,
      "act": 2495,
      "son": 2496,
      "atten": 2497,
      "microphone": 2498,
      "olives": 2499,
      "pige": 2500,
      "berry": 2501,
      "interior": 2502,
      "cri": 2503,
      "ili": 2504,
      "condi": 2505,
      "batting": 2506,
      "rainbow": 2507,
      "basketball": 2508,
      "loung": 2509,
      "great": 2510,
      "cookies": 2511,
      "laughing": 2512,
      "stee": 2513,
      "ird": 2514,
      "blowing": 2515,
      "liquid": 2516,
      "foun": 2517,
      "tun": 2518,
      "trave": 2519,
      "buss": 2520,
      "ahead": 2521,
      "my": 2522,
      "onion": 2523,
      "lighting": 2524,
      "fountain": 2525,
      "ier": 2526,
      "beef": 2527,
      "exhibit": 2528,
      "desserts": 2529,
      "gravel": 2530,
      "enjoy": 2531,
      "grilled": 2532,
      "thin": 2533,
      "cleaning": 2534,
      "bunk": 2535,
      "hills": 2536,
      "checking": 2537,
      "guard": 2538,
      "potato": 2539,
      "dit": 2540,
      "ina": 2541,
      "miniature": 2542,
      "teenag": 2543,
      "scar": 2544,
      "moped": 2545,
      "indic": 2546,
      "opening": 2547,
      "shape": 2548,
      "leag": 2549,
      "mask": 2550,
      "word": 2551,
      "fishing": 2552,
      "cardboard": 2553,
      "steeple": 2554,
      "bers": 2555,
      "og": 2556,
      "lane": 2557,
      "rusty": 2558,
      "weather": 2559,
      "trol": 2560,
      "controls": 2561,
      "complete": 2562,
      "ls": 2563,
      "sad": 2564,
      "booth": 2565,
      "wings": 2566,
      "advertisement": 2567,
      "twin": 2568,
      "tools": 2569,
      "hook": 2570,
      "more": 2571,
      "wear": 2572,
      "turning": 2573,
      "wrap": 2574,
      "ki": 2575,
      "shi": 2576,
      "plu": 2577,
      "backs": 2578,
      "qui": 2579,
      "sugar": 2580,
      "size": 2581,
      "dryer": 2582,
      "trolley": 2583,
      "clay": 2584,
      "mans": 2585,
      "tabby": 2586,
      "tress": 2587,
      "displays": 2588,
      "bookshelf": 2589,
      "roller": 2590,
      "entertain": 2591,
      "indu": 2592,
      "goat": 2593,
      "plaid": 2594,
      "saf": 2595,
      "serv": 2596,
      "newspaper": 2597,
      "condiments": 2598,
      "pin": 2599,
      "tin": 2600,
      "muddy": 2601,
      "located": 2602,
      "eu": 2603,
      "vy": 2604,
      "herself": 2605,
      "flooring": 2606,
      "spin": 2607,
      "catches": 2608,
      "seats": 2609,
      "pickle": 2610,
      "every": 2611,
      "thy": 2612,
      "carts": 2613,
      "rusted": 2614,
      "accessor": 2615,
      "iers": 2616,
      "adow": 2617,
      "para": 2618,
      "amic": 2619,
      "bent": 2620,
      "words": 2621,
      "travelling": 2622,
      "stage": 2623,
      "odd": 2624,
      "forward": 2625,
      "depic": 2626,
      "spital": 2627,
      "pare": 2628,
      "hospital": 2629,
      "unmade": 2630,
      "driver": 2631,
      "cere": 2632,
      "uc": 2633,
      "bas": 2634,
      "spray": 2635,
      "strial": 2636,
      "gaz": 2637,
      "crust": 2638,
      "bly": 2639,
      "ei": 2640,
      "stir": 2641,
      "custo": 2642,
      "gloves": 2643,
      "story": 2644,
      "industrial": 2645,
      "bars": 2646,
      "steak": 2647,
      "aked": 2648,
      "jockey": 2649,
      "taxi": 2650,
      "chasing": 2651,
      "ident": 2652,
      "coach": 2653,
      "cafe": 2654,
      "magaz": 2655,
      "meadow": 2656,
      "bicycl": 2657,
      "collar": 2658,
      "league": 2659,
      "ron": 2660,
      "balcon": 2661,
      "hallway": 2662,
      "aerial": 2663,
      "thrown": 2664,
      "attire": 2665,
      "sharing": 2666,
      "tusk": 2667,
      "ceramic": 2668,
      "brushes": 2669,
      "strip": 2670,
      "either": 2671,
      "biting": 2672,
      "tractor": 2673,
      "magn": 2674,
      "series": 2675,
      "pancakes": 2676,
      "helping": 2677,
      "neigh": 2678,
      "grapes": 2679,
      "comforter": 2680,
      "burn": 2681,
      "eting": 2682,
      "grocer": 2683,
      "lif": 2684,
      "libr": 2685,
      "ited": 2686,
      "grind": 2687,
      "icolored": 2688,
      "santa": 2689,
      "accessories": 2690,
      "library": 2691,
      "ano": 2692,
      "cam": 2693,
      "freshly": 2694,
      "transport": 2695,
      "calf": 2696,
      "fil": 2697,
      "tries": 2698,
      "stoplight": 2699,
      "nicely": 2700,
      "following": 2701,
      "est": 2702,
      "paste": 2703,
      "calm": 2704,
      "stares": 2705,
      "organized": 2706,
      "folded": 2707,
      "nat": 2708,
      "seems": 2709,
      "multicolored": 2710,
      "mom": 2711,
      "watering": 2712,
      "sleeps": 2713,
      "dishwasher": 2714,
      "neighbor": 2715,
      "dump": 2716,
      "almost": 2717,
      "chili": 2718,
      "chest": 2719,
      "statues": 2720,
      "cliff": 2721,
      "designed": 2722,
      "mostly": 2723,
      "fed": 2724,
      "onlook": 2725,
      "heading": 2726,
      "mattress": 2727,
      "countryside": 2728,
      "audi": 2729,
      "chinese": 2730,
      "seagulls": 2731,
      "picking": 2732,
      "paws": 2733,
      "frisbees": 2734,
      "yor": 2735,
      "baking": 2736,
      "matching": 2737,
      "railway": 2738,
      "cher": 2739,
      "tasty": 2740,
      "gress": 2741,
      "grand": 2742,
      "adjust": 2743,
      "horns": 2744,
      "hugging": 2745,
      "marina": 2746,
      "bouquet": 2747,
      "cowboy": 2748,
      "teams": 2749,
      "amongst": 2750,
      "balcony": 2751,
      "dig": 2752,
      "keys": 2753,
      "cushion": 2754,
      "circle": 2755,
      "system": 2756,
      "gentleman": 2757,
      "aband": 2758,
      ".\"": 2759,
      "lish": 2760,
      "pri": 2761,
      "order": 2762,
      "cab": 2763,
      "ument": 2764,
      "scra": 2765,
      "foreign": 2766,
      "funny": 2767,
      "tunnel": 2768,
      "neighborhood": 2769,
      "ddle": 2770,
      "hose": 2771,
      "ility": 2772,
      "susp": 2773,
      "cular": 2774,
      "point": 2775,
      "advertising": 2776,
      "allic": 2777,
      "larger": 2778,
      "heavy": 2779,
      "cuts": 2780,
      "owner": 2781,
      "baggage": 2782,
      "iled": 2783,
      "heart": 2784,
      "convers": 2785,
      "jumbo": 2786,
      "rails": 2787,
      "bakery": 2788,
      "hamburger": 2789,
      "sniffing": 2790,
      "isting": 2791,
      "rose": 2792,
      "metallic": 2793,
      "formal": 2794,
      "leaving": 2795,
      "trunks": 2796,
      "chopped": 2797,
      "buffet": 2798,
      "cig": 2799,
      "thouse": 2800,
      "rage": 2801,
      "prepare": 2802,
      "sunlight": 2803,
      "poster": 2804,
      "abandoned": 2805,
      "fans": 2806,
      "ribb": 2807,
      "oper": 2808,
      "typing": 2809,
      "sets": 2810,
      "powder": 2811,
      "connected": 2812,
      "natural": 2813,
      "sey": 2814,
      "licking": 2815,
      "ggles": 2816,
      "rubber": 2817,
      "cigar": 2818,
      "ged": 2819,
      "beg": 2820,
      "chewing": 2821,
      "worker": 2822,
      "fixt": 2823,
      "individual": 2824,
      "resort": 2825,
      "motorbike": 2826,
      "jer": 2827,
      "lf": 2828,
      "downtown": 2829,
      "quets": 2830,
      "flood": 2831,
      "stool": 2832,
      "cycl": 2833,
      "driveway": 2834,
      "dimly": 2835,
      "gy": 2836,
      "ading": 2837,
      "cold": 2838,
      "compan": 2839,
      "entertainment": 2840,
      "level": 2841,
      "ils": 2842,
      "focus": 2843,
      "pairs": 2844,
      "dusk": 2845,
      "candy": 2846,
      "framed": 2847,
      "circular": 2848,
      "castle": 2849,
      "pony": 2850,
      "busses": 2851,
      "audience": 2852,
      "ied": 2853,
      "rat": 2854,
      "mass": 2855,
      "lightly": 2856,
      "bearded": 2857,
      "jersey": 2858,
      "lly": 2859,
      "main": 2860,
      "boots": 2861,
      "stretched": 2862,
      "jam": 2863,
      "too": 2864,
      "chees": 2865,
      "proje": 2866,
      "lighthouse": 2867,
      "motorcyclist": 2868,
      "shining": 2869,
      "progress": 2870,
      "cano": 2871,
      "devices": 2872,
      "onlookers": 2873,
      "hung": 2874,
      "wit": 2875,
      "za": 2876,
      "opy": 2877,
      "cupcake": 2878,
      "propped": 2879,
      "helmets": 2880,
      "magnets": 2881,
      "cupboards": 2882,
      "bund": 2883,
      "nuts": 2884,
      "spot": 2885,
      "love": 2886,
      "bay": 2887,
      "coast": 2888,
      "pical": 2889,
      "bikin": 2890,
      "sailboat": 2891,
      "scat": 2892,
      "warm": 2893,
      "dispen": 2894,
      "contents": 2895,
      "unique": 2896,
      "finger": 2897,
      "ending": 2898,
      "adora": 2899,
      "fixing": 2900,
      "bill": 2901,
      "hiding": 2902,
      "dot": 2903,
      "dozen": 2904,
      "tablet": 2905,
      "piano": 2906,
      "besides": 2907,
      "canopy": 2908,
      "evening": 2909,
      "lounging": 2910,
      "raised": 2911,
      "upon": 2912,
      "cop": 2913,
      "backyard": 2914,
      "racquets": 2915,
      "belt": 2916,
      "tossing": 2917,
      "quiet": 2918,
      "thick": 2919,
      "colla": 2920,
      "kitty": 2921,
      "heal": 2922,
      "storage": 2923,
      "metro": 2924,
      "chefs": 2925,
      "bikers": 2926,
      "adorable": 2927,
      "come": 2928,
      "furry": 2929,
      "ka": 2930,
      "mill": 2931,
      "peeled": 2932,
      "shut": 2933,
      "amoun": 2934,
      "move": 2935,
      "savan": 2936,
      "porch": 2937,
      "separate": 2938,
      "scarf": 2939,
      "ears": 2940,
      "zy": 2941,
      "beak": 2942,
      "parrot": 2943,
      "stacle": 2944,
      "obstacle": 2945,
      "reflected": 2946,
      "vated": 2947,
      "played": 2948,
      "dio": 2949,
      "apron": 2950,
      "illumin": 2951,
      "gran": 2952,
      "grocery": 2953,
      "hip": 2954,
      "thum": 2955,
      "process": 2956,
      "lang": 2957,
      "sla": 2958,
      "daytime": 2959,
      "silverware": 2960,
      "ose": 2961,
      "pies": 2962,
      "bric": 2963,
      "istic": 2964,
      "straight": 2965,
      "lambs": 2966,
      "spinach": 2967,
      "langu": 2968,
      "dling": 2969,
      "tly": 2970,
      "rec": 2971,
      "skiis": 2972,
      "angle": 2973,
      "saying": 2974,
      "erness": 2975,
      "hardwood": 2976,
      "scattered": 2977,
      "link": 2978,
      "pand": 2979,
      "ises": 2980,
      "grazes": 2981,
      "fabric": 2982,
      "wilderness": 2983,
      "warning": 2984,
      "simple": 2985,
      "savanna": 2986,
      "lear": 2987,
      "lad": 2988,
      "blind": 2989,
      "squat": 2990,
      "football": 2991,
      "furnished": 2992,
      "collage": 2993,
      "shing": 2994,
      "cot": 2995,
      "bats": 2996,
      "crosses": 2997,
      "golf": 2998,
      "cookie": 2999,
      "smoking": 3000,
      "dge": 3001,
      "jung": 3002,
      "usu": 3003,
      "roast": 3004,
      "stance": 3005,
      "iced": 3006,
      "ounge": 3007,
      "barrel": 3008,
      "shaking": 3009,
      "lemons": 3010,
      "balancing": 3011,
      "music": 3012,
      "custom": 3013,
      "jungle": 3014,
      "pean": 3015,
      "tag": 3016,
      "works": 3017,
      "strange": 3018,
      "stretching": 3019,
      "fair": 3020,
      "logs": 3021,
      "kee": 3022,
      "freight": 3023,
      "finished": 3024,
      "parasa": 3025,
      "magazine": 3026,
      "bikini": 3027,
      "nest": 3028,
      "skin": 3029,
      "grown": 3030,
      "peeking": 3031,
      "really": 3032,
      "goggles": 3033,
      "leafy": 3034,
      "safety": 3035,
      "lounge": 3036,
      "than": 3037,
      "peel": 3038,
      "parach": 3039,
      "wake": 3040,
      "fauc": 3041,
      "selves": 3042,
      "sizes": 3043,
      "tourists": 3044,
      "turkey": 3045,
      "delivery": 3046,
      "amount": 3047,
      "need": 3048,
      "shar": 3049,
      "countertop": 3050,
      "talk": 3051,
      "drawers": 3052,
      "drop": 3053,
      "numerous": 3054,
      "ladder": 3055,
      "uzz": 3056,
      "surfs": 3057,
      "headed": 3058,
      "suspended": 3059,
      "ness": 3060,
      "volley": 3061,
      "healthy": 3062,
      "cum": 3063,
      "sne": 3064,
      "adorn": 3065,
      "pull": 3066,
      "themselves": 3067,
      "cigarette": 3068,
      "indoors": 3069,
      "ena": 3070,
      "haul": 3071,
      "intere": 3072,
      "ends": 3073,
      "screens": 3074,
      "ker": 3075,
      "slow": 3076,
      "ribbon": 3077,
      "ored": 3078,
      "villa": 3079,
      "rece": 3080,
      "unk": 3081,
      "pickles": 3082,
      "fighting": 3083,
      "comes": 3084,
      "tyard": 3085,
      "courtyard": 3086,
      "cans": 3087,
      "mix": 3088,
      "crane": 3089,
      "figure": 3090,
      "classroom": 3091,
      "muffin": 3092,
      "reme": 3093,
      "pill": 3094,
      "bathing": 3095,
      "ught": 3096,
      "plaza": 3097,
      "towering": 3098,
      "acc": 3099,
      "scooters": 3100,
      "balloons": 3101,
      "pigeons": 3102,
      "service": 3103,
      "lean": 3104,
      "monkey": 3105,
      "shoreline": 3106,
      "cereal": 3107,
      "pod": 3108,
      "seas": 3109,
      "packs": 3110,
      "goal": 3111,
      "cellphones": 3112,
      "sticker": 3113,
      "should": 3114,
      "canoe": 3115,
      "care": 3116,
      "reach": 3117,
      "closet": 3118,
      "soap": 3119,
      "auto": 3120,
      "snack": 3121,
      "motorcyclists": 3122,
      "students": 3123,
      "sneak": 3124,
      "cone": 3125,
      "dan": 3126,
      "gl": 3127,
      "ried": 3128,
      "foggy": 3129,
      "rustic": 3130,
      "buns": 3131,
      "lighted": 3132,
      "army": 3133,
      "photographs": 3134,
      "toothpaste": 3135,
      "beverages": 3136,
      "consisting": 3137,
      "iz": 3138,
      "site": 3139,
      "cobble": 3140,
      "stops": 3141,
      "shops": 3142,
      "vegetation": 3143,
      "barri": 3144,
      "knit": 3145,
      "trim": 3146,
      "button": 3147,
      "tusks": 3148,
      "ield": 3149,
      "skyline": 3150,
      "speakers": 3151,
      "panda": 3152,
      "mall": 3153,
      "slightly": 3154,
      "state": 3155,
      "orient": 3156,
      "shri": 3157,
      "points": 3158,
      "fat": 3159,
      "glow": 3160,
      "spl": 3161,
      "unusu": 3162,
      "oney": 3163,
      "blond": 3164,
      "oriental": 3165,
      "tat": 3166,
      "arena": 3167,
      "owl": 3168,
      "peace": 3169,
      "layer": 3170,
      "fry": 3171,
      "kept": 3172,
      "wards": 3173,
      "designs": 3174,
      "softball": 3175,
      "tight": 3176,
      "arri": 3177,
      "cau": 3178,
      "anger": 3179,
      "meeting": 3180,
      "valley": 3181,
      "gie": 3182,
      "any": 3183,
      "sideways": 3184,
      "eleg": 3185,
      "puts": 3186,
      "crossed": 3187,
      "silhou": 3188,
      "observing": 3189,
      "pedestal": 3190,
      "positioned": 3191,
      "hum": 3192,
      "kis": 3193,
      "wading": 3194,
      "camp": 3195,
      "heard": 3196,
      "shrimp": 3197,
      "aw": 3198,
      "lis": 3199,
      "mble": 3200,
      "pump": 3201,
      "attra": 3202,
      "seven": 3203,
      "groups": 3204,
      "west": 3205,
      "cond": 3206,
      "lining": 3207,
      "slicing": 3208,
      "exam": 3209,
      "paddling": 3210,
      "approaches": 3211,
      "fixtures": 3212,
      "dispenser": 3213,
      "village": 3214,
      "ief": 3215,
      "airlines": 3216,
      "waterway": 3217,
      "conve": 3218,
      "catchers": 3219,
      "monument": 3220,
      "material": 3221,
      "conversation": 3222,
      "cauli": 3223,
      "spar": 3224,
      "ws": 3225,
      "cock": 3226,
      "grabbing": 3227,
      "tening": 3228,
      "may": 3229,
      "sole": 3230,
      "vendor": 3231,
      "tric": 3232,
      "direct": 3233,
      "granite": 3234,
      "wand": 3235,
      "ough": 3236,
      "step": 3237,
      "attempts": 3238,
      "reflecting": 3239,
      "classic": 3240,
      "snacks": 3241,
      "present": 3242,
      "elegant": 3243,
      "cauliflower": 3244,
      "alt": 3245,
      "eter": 3246,
      "tape": 3247,
      "ica": 3248,
      "carto": 3249,
      "deer": 3250,
      "leaping": 3251,
      "teenager": 3252,
      "basin": 3253,
      "illuminated": 3254,
      "faucet": 3255,
      "trough": 3256,
      "ured": 3257,
      "alco": 3258,
      "caught": 3259,
      "waving": 3260,
      "cord": 3261,
      "pens": 3262,
      "sailboats": 3263,
      "storm": 3264,
      "crib": 3265,
      "bedspread": 3266,
      "numbers": 3267,
      "cucum": 3268,
      "forks": 3269,
      "bald": 3270,
      "portra": 3271,
      "cheesy": 3272,
      "afr": 3273,
      "icop": 3274,
      "ament": 3275,
      "desks": 3276,
      "blur": 3277,
      "helicop": 3278,
      "knives": 3279,
      "posts": 3280,
      "drawing": 3281,
      "patterned": 3282,
      "roman": 3283,
      "urine": 3284,
      "themed": 3285,
      "goods": 3286,
      "daugh": 3287,
      "flooded": 3288,
      "peanut": 3289,
      "unusual": 3290,
      "kay": 3291,
      "mor": 3292,
      "now": 3293,
      "twi": 3294,
      "raft": 3295,
      "diam": 3296,
      "married": 3297,
      "leads": 3298,
      "cas": 3299,
      "had": 3300,
      "rect": 3301,
      "will": 3302,
      "drying": 3303,
      "bies": 3304,
      "herding": 3305,
      "cluster": 3306,
      "europe": 3307,
      "second": 3308,
      "tags": 3309,
      "rubs": 3310,
      "much": 3311,
      "interesting": 3312,
      "split": 3313,
      "diamond": 3314,
      "orting": 3315,
      "skater": 3316,
      "terrain": 3317,
      "greenery": 3318,
      "dried": 3319,
      "spoons": 3320,
      "tropical": 3321,
      "within": 3322,
      "tending": 3323,
      "poss": 3324,
      "confer": 3325,
      "freeway": 3326,
      "ctory": 3327,
      "boogie": 3328,
      "strapped": 3329,
      "individuals": 3330,
      "massive": 3331,
      "ostri": 3332,
      "spla": 3333,
      "tasting": 3334,
      "angular": 3335,
      "human": 3336,
      "shades": 3337,
      "helicopter": 3338,
      "issu": 3339,
      "stable": 3340,
      "pocket": 3341,
      "stopping": 3342,
      "quilt": 3343,
      "colle": 3344,
      "piles": 3345,
      "turns": 3346,
      "eight": 3347,
      "roaming": 3348,
      "tablecloth": 3349,
      "english": 3350,
      "doubles": 3351,
      "sweat": 3352,
      "pattern": 3353,
      "celebrating": 3354,
      "hal": 3355,
      "kins": 3356,
      "labor": 3357,
      "upright": 3358,
      "histor": 3359,
      "factory": 3360,
      "canal": 3361,
      "knee": 3362,
      "costumes": 3363,
      "cartoon": 3364,
      "fts": 3365,
      "chro": 3366,
      "raying": 3367,
      "utility": 3368,
      "overpass": 3369,
      "cellular": 3370,
      "serves": 3371,
      "spraying": 3372,
      "relax": 3373,
      "soldiers": 3374,
      "print": 3375,
      "transportation": 3376,
      "language": 3377,
      "conference": 3378,
      "boarders": 3379,
      "airbor": 3380,
      "limb": 3381,
      "photographer": 3382,
      "garnish": 3383,
      "figurine": 3384,
      "hol": 3385,
      "buggy": 3386,
      "lip": 3387,
      "text": 3388,
      "indicating": 3389,
      "eag": 3390,
      "gives": 3391,
      "handing": 3392,
      "apan": 3393,
      "polka": 3394,
      "wrapper": 3395,
      "cree": 3396,
      "japan": 3397,
      "lan": 3398,
      "waff": 3399,
      "elevated": 3400,
      "tex": 3401,
      "console": 3402,
      "daughter": 3403,
      "sco": 3404,
      "remod": 3405,
      "depot": 3406,
      "drawer": 3407,
      "bagel": 3408,
      "notebook": 3409,
      "adjusting": 3410,
      "thumbs": 3411,
      "portrait": 3412,
      "elabor": 3413,
      "chand": 3414,
      "weird": 3415,
      "winding": 3416,
      "festi": 3417,
      "brit": 3418,
      "curve": 3419,
      "exc": 3420,
      "hooked": 3421,
      "grinding": 3422,
      "elaborate": 3423,
      "bis": 3424,
      "naked": 3425,
      "tid": 3426,
      "tissu": 3427,
      "float": 3428,
      "world": 3429,
      "canad": 3430,
      "speaking": 3431,
      "butt": 3432,
      "extended": 3433,
      "learning": 3434,
      "airborne": 3435,
      "jars": 3436,
      "lie": 3437,
      "ral": 3438,
      "commod": 3439,
      "backdrop": 3440,
      "mashed": 3441,
      "cleaned": 3442,
      "blood": 3443,
      "circus": 3444,
      "nam": 3445,
      "repair": 3446,
      "wicker": 3447,
      "geese": 3448,
      "whip": 3449,
      "snu": 3450,
      "els": 3451,
      "hangar": 3452,
      "cubic": 3453,
      "include": 3454,
      "products": 3455,
      "savannah": 3456,
      "parachute": 3457,
      "sparse": 3458,
      "chrome": 3459,
      "babies": 3460,
      "rowing": 3461,
      "dest": 3462,
      "oppon": 3463,
      "drivers": 3464,
      "jackets": 3465,
      "flav": 3466,
      "burg": 3467,
      "teenage": 3468,
      "begin": 3469,
      "eli": 3470,
      "fits": 3471,
      "ni": 3472,
      "tw": 3473,
      "frying": 3474,
      "polit": 3475,
      "moto": 3476,
      "signals": 3477,
      "overcast": 3478,
      "brief": 3479,
      "windowsill": 3480,
      "acting": 3481,
      "toasted": 3482,
      "kissing": 3483,
      "ual": 3484,
      "instr": 3485,
      "third": 3486,
      "shap": 3487,
      "pug": 3488,
      "plains": 3489,
      "worn": 3490,
      "sporting": 3491,
      "carry": 3492,
      "gaze": 3493,
      "pathway": 3494,
      "farmers": 3495,
      "practice": 3496,
      "china": 3497,
      "ditional": 3498,
      "festival": 3499,
      "jor": 3500,
      "nur": 3501,
      "youth": 3502,
      "leap": 3503,
      "ities": 3504,
      "thedr": 3505,
      "seating": 3506,
      "loaf": 3507,
      "cathedr": 3508,
      "amid": 3509,
      "sails": 3510,
      "chained": 3511,
      "squatting": 3512,
      "customers": 3513,
      "hauling": 3514,
      "apart": 3515,
      "stroller": 3516,
      "ations": 3517,
      "headboard": 3518,
      "extra": 3519,
      "trio": 3520,
      "urines": 3521,
      "message": 3522,
      "figurines": 3523,
      "digital": 3524,
      "kayak": 3525,
      "cathedral": 3526,
      "ption": 3527,
      "sam": 3528,
      "logo": 3529,
      "vering": 3530,
      "ama": 3531,
      "div": 3532,
      "stools": 3533,
      "such": 3534,
      "photographed": 3535,
      "crack": 3536,
      "appear": 3537,
      "ky": 3538,
      "kno": 3539,
      "uncooked": 3540,
      "asph": 3541,
      "pay": 3542,
      "backpacks": 3543,
      "cloud": 3544,
      "depicting": 3545,
      "british": 3546,
      "tidy": 3547,
      "oon": 3548,
      "sum": 3549,
      "bad": 3550,
      "lips": 3551,
      "puddle": 3552,
      "meats": 3553,
      "artistic": 3554,
      "package": 3555,
      "scale": 3556,
      "active": 3557,
      "glid": 3558,
      "oly": 3559,
      "pig": 3560,
      "thre": 3561,
      "ero": 3562,
      "sters": 3563,
      "racks": 3564,
      "pears": 3565,
      "shines": 3566,
      "shield": 3567,
      "gravy": 3568,
      "carouse": 3569,
      "force": 3570,
      "towing": 3571,
      "places": 3572,
      "placing": 3573,
      "tube": 3574,
      "venue": 3575,
      "special": 3576,
      "marked": 3577,
      "scenic": 3578,
      "medium": 3579,
      "sneakers": 3580,
      "african": 3581,
      "cola": 3582,
      "grab": 3583,
      "skyscra": 3584,
      "barbe": 3585,
      "staircase": 3586,
      "knees": 3587,
      "adorned": 3588,
      "commode": 3589,
      "asphalt": 3590,
      "carousel": 3591,
      "call": 3592,
      "rise": 3593,
      "inf": 3594,
      "array": 3595,
      "gest": 3596,
      "disk": 3597,
      "closely": 3598,
      "barbed": 3599,
      "stalls": 3600,
      "kettle": 3601,
      "warehouse": 3602,
      "returning": 3603,
      "shuttle": 3604,
      "conveyor": 3605,
      "bri": 3606,
      "dam": 3607,
      "major": 3608,
      "stomach": 3609,
      "dressing": 3610,
      "printer": 3611,
      "sweet": 3612,
      "strawberry": 3613,
      "competing": 3614,
      "cruise": 3615,
      "powdered": 3616,
      "emer": 3617,
      "gun": 3618,
      "ifi": 3619,
      "rup": 3620,
      "law": 3621,
      "planter": 3622,
      "keyboards": 3623,
      "chopsticks": 3624,
      "claim": 3625,
      "were": 3626,
      "ino": 3627,
      "selection": 3628,
      "lobby": 3629,
      "cable": 3630,
      "stripes": 3631,
      "cooks": 3632,
      "tourist": 3633,
      "deserted": 3634,
      "super": 3635,
      "directly": 3636,
      "when": 3637,
      "bean": 3638,
      "shrubs": 3639,
      "foli": 3640,
      "roadside": 3641,
      "towers": 3642,
      "viewed": 3643,
      "check": 3644,
      "stationary": 3645,
      "suite": 3646,
      "help": 3647,
      "rocking": 3648,
      "electrical": 3649,
      "calico": 3650,
      "crates": 3651,
      "muffins": 3652,
      "gour": 3653,
      "ens": 3654,
      "ider": 3655,
      "coke": 3656,
      "ante": 3657,
      "rubbing": 3658,
      "combin": 3659,
      "del": 3660,
      "ational": 3661,
      "faced": 3662,
      "slide": 3663,
      "potter": 3664,
      "entering": 3665,
      "newly": 3666,
      "crate": 3667,
      "soldier": 3668,
      "foliage": 3669,
      "env": 3670,
      "skil": 3671,
      "boardwalk": 3672,
      "comm": 3673,
      "macar": 3674,
      "indian": 3675,
      "bookcase": 3676,
      "dual": 3677,
      "stores": 3678,
      "mixt": 3679,
      "pointed": 3680,
      "barrier": 3681,
      "ostrich": 3682,
      "opponent": 3683,
      "ash": 3684,
      "names": 3685,
      "tiger": 3686,
      "thru": 3687,
      "ened": 3688,
      "chan": 3689,
      "rab": 3690,
      "hear": 3691,
      "frozen": 3692,
      "shots": 3693,
      "midair": 3694,
      "meas": 3695,
      "curious": 3696,
      "suv": 3697,
      "stepping": 3698,
      "border": 3699,
      "paintings": 3700,
      "harness": 3701,
      "extreme": 3702,
      "crouching": 3703,
      "archite": 3704,
      "podium": 3705,
      "european": 3706,
      "cubicle": 3707,
      "mixture": 3708,
      "rings": 3709,
      "ula": 3710,
      "ram": 3711,
      "ummy": 3712,
      "fog": 3713,
      "scrat": 3714,
      "runner": 3715,
      "diner": 3716,
      "intently": 3717,
      "wildlife": 3718,
      "dash": 3719,
      "balances": 3720,
      "balloon": 3721,
      "shoulders": 3722,
      "snugg": 3723,
      "shapes": 3724,
      "cious": 3725,
      "radio": 3726,
      "eta": 3727,
      "necks": 3728,
      "unit": 3729,
      "dip": 3730,
      "checks": 3731,
      "dusty": 3732,
      "maroon": 3733,
      "pads": 3734,
      "ferry": 3735,
      "occup": 3736,
      "silhouette": 3737,
      "listening": 3738,
      "ave": 3739,
      "aff": 3740,
      "spotted": 3741,
      "lego": 3742,
      "real": 3743,
      "mail": 3744,
      "uniformed": 3745,
      "artwork": 3746,
      "partly": 3747,
      "feeds": 3748,
      "porce": 3749,
      "ironment": 3750,
      "bicyclist": 3751,
      "leaned": 3752,
      "rectangular": 3753,
      "texting": 3754,
      "chandeli": 3755,
      "infant": 3756,
      "antelo": 3757,
      "environment": 3758,
      "macaroni": 3759,
      "tagged": 3760,
      "outfits": 3761,
      "fac": 3762,
      "tuxed": 3763,
      "guest": 3764,
      "cupboard": 3765,
      "express": 3766,
      "policeman": 3767,
      "lery": 3768,
      "operating": 3769,
      "blurred": 3770,
      "robe": 3771,
      "parts": 3772,
      "parent": 3773,
      "capped": 3774,
      "pajam": 3775,
      "spat": 3776,
      "dug": 3777,
      "stacks": 3778,
      "spacious": 3779,
      "starting": 3780,
      "stretches": 3781,
      "syrup": 3782,
      "cherry": 3783,
      "grandfather": 3784,
      "junk": 3785,
      "ris": 3786,
      "spic": 3787,
      "tying": 3788,
      "lain": 3789,
      "ided": 3790,
      "lodge": 3791,
      "peering": 3792,
      "holid": 3793,
      "signage": 3794,
      "dipping": 3795,
      "floats": 3796,
      "bling": 3797,
      "refrigerators": 3798,
      "nightstand": 3799,
      "sleep": 3800,
      "ddled": 3801,
      "touch": 3802,
      "excited": 3803,
      "skillet": 3804,
      "spatula": 3805,
      "cuit": 3806,
      "ox": 3807,
      "cha": 3808,
      "needs": 3809,
      "tram": 3810,
      "sme": 3811,
      "walled": 3812,
      "grassland": 3813,
      "maker": 3814,
      "curved": 3815,
      "caption": 3816,
      "figures": 3817,
      "speeding": 3818,
      "sprinkled": 3819,
      "blinds": 3820,
      "tissue": 3821,
      "done": 3822,
      "gal": 3823,
      "mboo": 3824,
      "though": 3825,
      "bamboo": 3826,
      "traditional": 3827,
      "demon": 3828,
      "quick": 3829,
      "viewing": 3830,
      "tif": 3831,
      "else": 3832,
      "hitter": 3833,
      "athlet": 3834,
      "flipping": 3835,
      "fingers": 3836,
      "teenagers": 3837,
      "ships": 3838,
      "gym": 3839,
      "skinny": 3840,
      "cobblestone": 3841,
      "remodeled": 3842,
      "fight": 3843,
      "hut": 3844,
      "urt": 3845,
      "asse": 3846,
      "movie": 3847,
      "younger": 3848,
      "weeds": 3849,
      "tech": 3850,
      "conver": 3851,
      "noon": 3852,
      "stripe": 3853,
      "bicyclists": 3854,
      "attractive": 3855,
      "porcelain": 3856,
      "cant": 3857,
      "file": 3858,
      "rode": 3859,
      "start": 3860,
      "somewhere": 3861,
      "menu": 3862,
      "engaged": 3863,
      "letter": 3864,
      "otic": 3865,
      "sofas": 3866,
      "pineapple": 3867,
      "plush": 3868,
      "alcohol": 3869,
      "pajamas": 3870,
      "pets": 3871,
      "alarm": 3872,
      "whe": 3873,
      "icip": 3874,
      "cept": 3875,
      "motel": 3876,
      "clearing": 3877,
      "skiier": 3878,
      "entree": 3879,
      "bowling": 3880,
      "mountainous": 3881,
      "stunts": 3882,
      "biker": 3883,
      "york": 3884,
      "japanese": 3885,
      "gourmet": 3886,
      "heel": 3887,
      "lers": 3888,
      "inc": 3889,
      "locked": 3890,
      "pel": 3891,
      "shrubber": 3892,
      "plow": 3893,
      "parag": 3894,
      "caut": 3895,
      "mote": 3896,
      "map": 3897,
      "jelly": 3898,
      "carriages": 3899,
      "spots": 3900,
      "appliance": 3901,
      "stump": 3902,
      "hiking": 3903,
      "identical": 3904,
      "glowing": 3905,
      "holiday": 3906,
      "awaiting": 3907,
      "jeep": 3908,
      "til": 3909,
      "cham": 3910,
      "plen": 3911,
      "peas": 3912,
      "united": 3913,
      "umn": 3914,
      "towed": 3915,
      "treats": 3916,
      "bigger": 3917,
      "barren": 3918,
      "balance": 3919,
      "pork": 3920,
      "farmer": 3921,
      "saddle": 3922,
      "shrubbery": 3923,
      "bid": 3924,
      "gaming": 3925,
      "zone": 3926,
      "ancho": 3927,
      "icap": 3928,
      "unfinished": 3929,
      "shred": 3930,
      "comb": 3931,
      "handicap": 3932,
      "aging": 3933,
      "otto": 3934,
      "suburban": 3935,
      "wheelchair": 3936,
      "presen": 3937,
      "melon": 3938,
      "cooling": 3939,
      "company": 3940,
      "avenue": 3941,
      "cending": 3942,
      "bulls": 3943,
      "cass": 3944,
      "lime": 3945,
      "banner": 3946,
      "reno": 3947,
      "clown": 3948,
      "pitched": 3949,
      "sushi": 3950,
      "sive": 3951,
      "notes": 3952,
      "pigeon": 3953,
      "sharp": 3954,
      "automobile": 3955,
      "dancing": 3956,
      "awning": 3957,
      "possi": 3958,
      "fle": 3959,
      "navy": 3960,
      "peng": 3961,
      "int": 3962,
      "altered": 3963,
      "upward": 3964,
      "celery": 3965,
      "moored": 3966,
      "bunny": 3967,
      "cutter": 3968,
      "engines": 3969,
      "stripped": 3970,
      "penc": 3971,
      "chickens": 3972,
      "separated": 3973,
      "billboard": 3974,
      "crackers": 3975,
      "possibly": 3976,
      "pir": 3977,
      "pily": 3978,
      "lace": 3979,
      "shine": 3980,
      "page": 3981,
      "pact": 3982,
      "rus": 3983,
      "treat": 3984,
      "cords": 3985,
      "ovens": 3986,
      "cub": 3987,
      "equipped": 3988,
      "swung": 3989,
      "biscuit": 3990,
      "chandelier": 3991,
      "pengu": 3992,
      "centr": 3993,
      "ric": 3994,
      "inspe": 3995,
      "roy": 3996,
      "ado": 3997,
      "horned": 3998,
      "teaching": 3999,
      "cubs": 4000,
      "garlic": 4001,
      "falls": 4002,
      "silly": 4003,
      "cycles": 4004,
      "lifting": 4005,
      "hipster": 4006,
      "pillar": 4007,
      "eagle": 4008,
      "buttons": 4009,
      "een": 4010,
      "eas": 4011,
      "fuzz": 4012,
      "nor": 4013,
      "retr": 4014,
      "alumin": 4015,
      "etti": 4016,
      "local": 4017,
      "bump": 4018,
      "coats": 4019,
      "foam": 4020,
      "horiz": 4021,
      "roads": 4022,
      "opens": 4023,
      "shake": 4024,
      "forested": 4025,
      "blocks": 4026,
      "windshield": 4027,
      "hoodie": 4028,
      "happily": 4029,
      "bullet": 4030,
      "plugged": 4031,
      "fuzzy": 4032,
      "cul": 4033,
      "yog": 4034,
      "mantle": 4035,
      "rim": 4036,
      "pag": 4037,
      "ache": 4038,
      "outfield": 4039,
      "breast": 4040,
      "breaking": 4041,
      "bends": 4042,
      "handles": 4043,
      "tiered": 4044,
      "mean": 4045,
      "steer": 4046,
      "letting": 4047,
      "necktie": 4048,
      "stained": 4049,
      "crum": 4050,
      "powered": 4051,
      "comfortable": 4052,
      "yogurt": 4053,
      "heat": 4054,
      "sled": 4055,
      "unloading": 4056,
      "grouped": 4057,
      "compact": 4058,
      "dless": 4059,
      "shaggy": 4060,
      "letters": 4061,
      "afternoon": 4062,
      "cards": 4063,
      "whipped": 4064,
      "tuxedo": 4065,
      "wheeled": 4066,
      "ottoman": 4067,
      "retrie": 4068,
      "fut": 4069,
      "upper": 4070,
      "playground": 4071,
      "ridding": 4072,
      "decked": 4073,
      "wallpaper": 4074,
      "portion": 4075,
      "interacting": 4076,
      "ipod": 4077,
      "pitchers": 4078,
      "mbers": 4079,
      "blocking": 4080,
      "windsurfing": 4081,
      "crouched": 4082,
      "furnishings": 4083,
      "money": 4084,
      "label": 4085,
      "situ": 4086,
      "peeling": 4087,
      "adja": 4088,
      "poised": 4089,
      "pipes": 4090,
      "surpr": 4091,
      "toiletries": 4092,
      "flowing": 4093,
      "slides": 4094,
      "bris": 4095,
      "hanger": 4096,
      "visit": 4097,
      "ddling": 4098,
      "called": 4099,
      "avoc": 4100,
      "grizz": 4101,
      "relish": 4102,
      "dozens": 4103,
      "delta": 4104,
      "adjacent": 4105,
      "dated": 4106,
      "rons": 4107,
      "vic": 4108,
      "waterfall": 4109,
      "descri": 4110,
      "females": 4111,
      "convent": 4112,
      "watched": 4113,
      "bloom": 4114,
      "sausages": 4115,
      "gliding": 4116,
      "humming": 4117,
      "guests": 4118,
      "caution": 4119,
      "aluminum": 4120,
      "ever": 4121,
      "mural": 4122,
      "nut": 4123,
      "oil": 4124,
      "vand": 4125,
      "ana": 4126,
      "theme": 4127,
      "tool": 4128,
      "belong": 4129,
      "ically": 4130,
      "unripe": 4131,
      "dolls": 4132,
      "coles": 4133,
      "folding": 4134,
      "outstretched": 4135,
      "feath": 4136,
      "firetruck": 4137,
      "driven": 4138,
      "socks": 4139,
      "leave": 4140,
      "emplo": 4141,
      "dinning": 4142,
      "stems": 4143,
      "german": 4144,
      "strings": 4145,
      "busines": 4146,
      "ornament": 4147,
      "followed": 4148,
      "parasailing": 4149,
      "halves": 4150,
      "pottery": 4151,
      "plenty": 4152,
      "coleslaw": 4153,
      "feathers": 4154,
      "20": 4155,
      "crest": 4156,
      "hun": 4157,
      "vate": 4158,
      "information": 4159,
      "ara": 4160,
      "alized": 4161,
      "pea": 4162,
      "tort": 4163,
      "diving": 4164,
      "perches": 4165,
      "vast": 4166,
      "members": 4167,
      "provide": 4168,
      "donkey": 4169,
      "panel": 4170,
      "trip": 4171,
      "directing": 4172,
      "flatbed": 4173,
      "distant": 4174,
      "mbo": 4175,
      "rh": 4176,
      "sat": 4177,
      "yond": 4178,
      "inflat": 4179,
      "alle": 4180,
      "chet": 4181,
      "manne": 4182,
      "beyond": 4183,
      "poking": 4184,
      "carn": 4185,
      "grasses": 4186,
      "setup": 4187,
      "haw": 4188,
      "span": 4189,
      "spro": 4190,
      "mixing": 4191,
      "acter": 4192,
      "swans": 4193,
      "character": 4194,
      "private": 4195,
      "cabbage": 4196,
      "bricks": 4197,
      "dugout": 4198,
      "inflatable": 4199,
      "ilar": 4200,
      "nav": 4201,
      "roo": 4202,
      "holes": 4203,
      "icy": 4204,
      "skates": 4205,
      "bedding": 4206,
      "utes": 4207,
      "handbag": 4208,
      "stocked": 4209,
      "curren": 4210,
      "sleek": 4211,
      "flowered": 4212,
      "similar": 4213,
      "embra": 4214,
      "cyclist": 4215,
      "wandering": 4216,
      "burgers": 4217,
      "mannequ": 4218,
      "anc": 4219,
      "change": 4220,
      "cops": 4221,
      "compartment": 4222,
      "backwards": 4223,
      "heav": 4224,
      "appet": 4225,
      "hilly": 4226,
      "steering": 4227,
      "rolled": 4228,
      "crouches": 4229,
      "speaker": 4230,
      "cucumbers": 4231,
      "rabbit": 4232,
      "antelope": 4233,
      "quickly": 4234,
      "heels": 4235,
      "heavily": 4236,
      "dom": 4237,
      "pou": 4238,
      "thers": 4239,
      "route": 4240,
      "rap": 4241,
      "ids": 4242,
      "sewing": 4243,
      "could": 4244,
      "herbs": 4245,
      "filling": 4246,
      "concer": 4247,
      "tug": 4248,
      "dresses": 4249,
      "club": 4250,
      "stew": 4251,
      "smooth": 4252,
      "stalled": 4253,
      "swan": 4254,
      "melted": 4255,
      "cooler": 4256,
      "gazel": 4257,
      "measuring": 4258,
      "bidet": 4259,
      "19": 4260,
      "50": 4261,
      "dad": 4262,
      "deta": 4263,
      "non": 4264,
      "raising": 4265,
      "layered": 4266,
      "asparag": 4267,
      "achers": 4268,
      "carved": 4269,
      "ights": 4270,
      "nearly": 4271,
      "ramps": 4272,
      "exit": 4273,
      "times": 4274,
      "marsh": 4275,
      "bites": 4276,
      "symbo": 4277,
      "location": 4278,
      "accents": 4279,
      "anchored": 4280,
      "situated": 4281,
      "vandalized": 4282,
      "tortilla": 4283,
      "asparagus": 4284,
      "boun": 4285,
      "ips": 4286,
      "late": 4287,
      "rit": 4288,
      "won": 4289,
      "installed": 4290,
      "labe": 4291,
      "sex": 4292,
      "thered": 4293,
      "pher": 4294,
      "cages": 4295,
      "pop": 4296,
      "horn": 4297,
      "ggie": 4298,
      "carrier": 4299,
      "kneels": 4300,
      "portable": 4301,
      "chopping": 4302,
      "barefoot": 4303,
      "liquor": 4304,
      "numerals": 4305,
      "cyclists": 4306,
      "slab": 4307,
      "sweatshirt": 4308,
      "leaps": 4309,
      "grizzly": 4310,
      "nuzz": 4311,
      "wre": 4312,
      "lets": 4313,
      "legged": 4314,
      "stones": 4315,
      "unable": 4316,
      "share": 4317,
      "airline": 4318,
      "uments": 4319,
      "polo": 4320,
      "croiss": 4321,
      "corral": 4322,
      "interactive": 4323,
      "social": 4324,
      "patient": 4325,
      "squash": 4326,
      "sculptures": 4327,
      "knitted": 4328,
      "demonstr": 4329,
      "champag": 4330,
      "champagne": 4331,
      "fine": 4332,
      "iphone": 4333,
      "sour": 4334,
      "rema": 4335,
      "coca": 4336,
      "thats": 4337,
      "bend": 4338,
      "discu": 4339,
      "midst": 4340,
      "prop": 4341,
      "travelers": 4342,
      "helps": 4343,
      "posters": 4344,
      "styled": 4345,
      "price": 4346,
      "smiley": 4347,
      "bbq": 4348,
      "washington": 4349,
      "mopeds": 4350,
      "threw": 4351,
      "smelling": 4352,
      "cassero": 4353,
      "discuss": 4354,
      "cin": 4355,
      "crown": 4356,
      "drain": 4357,
      "lung": 4358,
      "ude": 4359,
      "those": 4360,
      "then": 4361,
      "whit": 4362,
      "areas": 4363,
      "grape": 4364,
      "training": 4365,
      "stored": 4366,
      "brand": 4367,
      "plated": 4368,
      "hua": 4369,
      "squir": 4370,
      "shaded": 4371,
      "smartphone": 4372,
      "protective": 4373,
      "keep": 4374,
      "mixer": 4375,
      "materials": 4376,
      "presentation": 4377,
      "creek": 4378,
      "dashboard": 4379,
      "oval": 4380,
      "incoming": 4381,
      "reve": 4382,
      "regu": 4383,
      "stating": 4384,
      "chal": 4385,
      "rasp": 4386,
      "rams": 4387,
      "lab": 4388,
      "orary": 4389,
      "airfield": 4390,
      "wax": 4391,
      "limit": 4392,
      "motorbikes": 4393,
      "soaked": 4394,
      "tucked": 4395,
      "mex": 4396,
      "strike": 4397,
      "meals": 4398,
      "instruments": 4399,
      "summer": 4400,
      "hom": 4401,
      "ared": 4402,
      "chang": 4403,
      "shes": 4404,
      "aded": 4405,
      "bug": 4406,
      "caged": 4407,
      "ghetti": 4408,
      "quo": 4409,
      "biplane": 4410,
      "studio": 4411,
      "flaming": 4412,
      "takeoff": 4413,
      "medical": 4414,
      "pushed": 4415,
      "buffal": 4416,
      "activ": 4417,
      "completely": 4418,
      "parasail": 4419,
      "slowly": 4420,
      "mbled": 4421,
      "college": 4422,
      "destin": 4423,
      "pirate": 4424,
      "surprised": 4425,
      "convention": 4426,
      "casserole": 4427,
      "lete": 4428,
      "maneu": 4429,
      "basil": 4430,
      "beam": 4431,
      "tably": 4432,
      "ury": 4433,
      "skatepark": 4434,
      "dec": 4435,
      "perfe": 4436,
      "serious": 4437,
      "colorfully": 4438,
      "mugs": 4439,
      "cheesecake": 4440,
      "lower": 4441,
      "huddled": 4442,
      "saucer": 4443,
      "spaghetti": 4444,
      "touches": 4445,
      "gency": 4446,
      "celebration": 4447,
      "parasol": 4448,
      "beginning": 4449,
      "briefcase": 4450,
      "olym": 4451,
      "emergency": 4452,
      "hawk": 4453,
      "labeled": 4454,
      "cue": 4455,
      "spire": 4456,
      "vd": 4457,
      "stare": 4458,
      "aler": 4459,
      "taped": 4460,
      "veggie": 4461,
      "paralle": 4462,
      "fix": 4463,
      "contra": 4464,
      "crochet": 4465,
      "soaring": 4466,
      "nothing": 4467,
      "canoes": 4468,
      "dust": 4469,
      "athlete": 4470,
      "refer": 4471,
      "lonely": 4472,
      "dragon": 4473,
      "mustache": 4474,
      "comfortably": 4475,
      "printed": 4476,
      "tattoo": 4477,
      "waffles": 4478,
      "combination": 4479,
      "tific": 4480,
      "rodeo": 4481,
      "regular": 4482,
      "hour": 4483,
      "izing": 4484,
      "miss": 4485,
      "rand": 4486,
      "yar": 4487,
      "instruction": 4488,
      "best": 4489,
      "streetlight": 4490,
      "fields": 4491,
      "blueberries": 4492,
      "angry": 4493,
      "perch": 4494,
      "hydrants": 4495,
      "landed": 4496,
      "exposed": 4497,
      "queen": 4498,
      "napkins": 4499,
      "spring": 4500,
      "tires": 4501,
      "presents": 4502,
      "lifts": 4503,
      "olympic": 4504,
      "ire": 4505,
      "vi": 4506,
      "opposing": 4507,
      "singing": 4508,
      "crew": 4509,
      "shaving": 4510,
      "timate": 4511,
      "directional": 4512,
      "chains": 4513,
      "camou": 4514,
      "barrels": 4515,
      "volleyball": 4516,
      "scratching": 4517,
      "parallel": 4518,
      "fu": 4519,
      "hur": 4520,
      "ng": 4521,
      "rd": 4522,
      "oncoming": 4523,
      "isle": 4524,
      "igating": 4525,
      "bleachers": 4526,
      "bushel": 4527,
      "parents": 4528,
      "lux": 4529,
      "picks": 4530,
      "picked": 4531,
      "quar": 4532,
      "tulips": 4533,
      "brocoll": 4534,
      "nighttime": 4535,
      "clearly": 4536,
      "sauces": 4537,
      "featured": 4538,
      "cabinetry": 4539,
      "machines": 4540,
      "ival": 4541,
      "stretch": 4542,
      "draped": 4543,
      "charact": 4544,
      "camping": 4545,
      "season": 4546,
      "canadian": 4547,
      "yarn": 4548,
      "brocolli": 4549,
      "characters": 4550,
      "ders": 4551,
      "gated": 4552,
      "nine": 4553,
      "tanger": 4554,
      "yet": 4555,
      "ney": 4556,
      "skull": 4557,
      "pia": 4558,
      "entry": 4559,
      "conf": 4560,
      "peri": 4561,
      "got": 4562,
      "mountainside": 4563,
      "darkened": 4564,
      "marking": 4565,
      "cram": 4566,
      "carpeted": 4567,
      "gallo": 4568,
      "penguin": 4569,
      "buffalo": 4570,
      "dun": 4571,
      "dum": 4572,
      "honey": 4573,
      "ners": 4574,
      "zard": 4575,
      "instru": 4576,
      "rod": 4577,
      "aling": 4578,
      "plum": 4579,
      "somebody": 4580,
      "wallet": 4581,
      "give": 4582,
      "tethered": 4583,
      "ultimate": 4584,
      "quite": 4585,
      "preparation": 4586,
      "curly": 4587,
      "shelving": 4588,
      "know": 4589,
      "cloudless": 4590,
      "states": 4591,
      "crafts": 4592,
      "makeup": 4593,
      "historic": 4594,
      "relaxes": 4595,
      "barbecue": 4596,
      "aqu": 4597,
      "brow": 4598,
      "mal": 4599,
      "oba": 4600,
      "south": 4601,
      "ud": 4602,
      "artific": 4603,
      "recor": 4604,
      "eties": 4605,
      "amese": 4606,
      "moon": 4607,
      "greeting": 4608,
      "fill": 4609,
      "stocking": 4610,
      "liners": 4611,
      "bron": 4612,
      "bookshelves": 4613,
      "varieties": 4614,
      "kna": 4615,
      "gazing": 4616,
      "siamese": 4617,
      "policemen": 4618,
      "wheeler": 4619,
      "frames": 4620,
      "doesn": 4621,
      "steamed": 4622,
      "consists": 4623,
      "musical": 4624,
      "ceremon": 4625,
      "burning": 4626,
      "begins": 4627,
      "projector": 4628,
      "bundle": 4629,
      "damaged": 4630,
      "extremely": 4631,
      "10": 4632,
      "hund": 4633,
      "ila": 4634,
      "oak": 4635,
      "slip": 4636,
      "wrest": 4637,
      "invest": 4638,
      "bubble": 4639,
      "grow": 4640,
      "airy": 4641,
      "coin": 4642,
      "rized": 4643,
      "sided": 4644,
      "tarp": 4645,
      "official": 4646,
      "lens": 4647,
      "choppy": 4648,
      "bulld": 4649,
      "everyone": 4650,
      "jockeys": 4651,
      "motorized": 4652,
      "shredded": 4653,
      "obama": 4654,
      "artificial": 4655,
      "hundred": 4656,
      "aim": 4657,
      "dome": 4658,
      "vil": 4659,
      "vine": 4660,
      "reg": 4661,
      "cozy": 4662,
      "trainer": 4663,
      "telling": 4664,
      "atory": 4665,
      "bins": 4666,
      "friz": 4667,
      "deserts": 4668,
      "cran": 4669,
      "paddles": 4670,
      "competitive": 4671,
      "taxis": 4672,
      "enjoys": 4673,
      "everything": 4674,
      "arriving": 4675,
      "camper": 4676,
      "carnival": 4677,
      "mexican": 4678,
      "perfect": 4679,
      "random": 4680,
      "flush": 4681,
      "gad": 4682,
      "sword": 4683,
      "wise": 4684,
      "arched": 4685,
      "rese": 4686,
      "wool": 4687,
      "peak": 4688,
      "strewn": 4689,
      "somewhat": 4690,
      "gradu": 4691,
      "ambul": 4692,
      "foc": 4693,
      "skiiers": 4694,
      "sanding": 4695,
      "countertops": 4696,
      "curvy": 4697,
      "storefront": 4698,
      "tails": 4699,
      "extends": 4700,
      "follows": 4701,
      "butterfly": 4702,
      "belly": 4703,
      "dorm": 4704,
      "stirring": 4705,
      "glides": 4706,
      "occupied": 4707,
      "easy": 4708,
      "sprouts": 4709,
      "filed": 4710,
      "pant": 4711,
      "vo": 4712,
      "sepia": 4713,
      "peers": 4714,
      "ics": 4715,
      "omelet": 4716,
      "watermelon": 4717,
      "winds": 4718,
      "department": 4719,
      "drum": 4720,
      "trek": 4721,
      "president": 4722,
      "vacant": 4723,
      "microwaves": 4724,
      "crashing": 4725,
      "italian": 4726,
      "buckets": 4727,
      "kicks": 4728,
      "cucumber": 4729,
      "morning": 4730,
      "scoop": 4731,
      "businesses": 4732,
      "mou": 4733,
      "sle": 4734,
      "spi": 4735,
      "sight": 4736,
      "tide": 4737,
      "oms": 4738,
      "beat": 4739,
      "ads": 4740,
      "airways": 4741,
      "debris": 4742,
      "ques": 4743,
      "shoo": 4744,
      "tired": 4745,
      "jumped": 4746,
      "memor": 4747,
      "cameras": 4748,
      "rounding": 4749,
      "decorating": 4750,
      "hello": 4751,
      "exiting": 4752,
      "questri": 4753,
      "vests": 4754,
      "balanced": 4755,
      "olive": 4756,
      "student": 4757,
      "project": 4758,
      "accident": 4759,
      "architecture": 4760,
      "wonder": 4761,
      "referee": 4762,
      "equestri": 4763,
      "find": 4764,
      "feter": 4765,
      "lion": 4766,
      "yach": 4767,
      "oft": 4768,
      "today": 4769,
      "robot": 4770,
      "rather": 4771,
      "cause": 4772,
      "cafeter": 4773,
      "limes": 4774,
      "rugs": 4775,
      "overlooks": 4776,
      "merged": 4777,
      "mechan": 4778,
      "striking": 4779,
      "carton": 4780,
      "strong": 4781,
      "medic": 4782,
      "early": 4783,
      "propellers": 4784,
      "mesh": 4785,
      "sniffs": 4786,
      "attention": 4787,
      "kiwi": 4788,
      "safari": 4789,
      "everywhere": 4790,
      "dotted": 4791,
      "nestled": 4792,
      "historical": 4793,
      "nursing": 4794,
      "spices": 4795,
      "changing": 4796,
      "cd": 4797,
      "cit": 4798,
      "kiss": 4799,
      "mate": 4800,
      "mous": 4801,
      "ore": 4802,
      "rising": 4803,
      "racer": 4804,
      "smother": 4805,
      "ilies": 4806,
      "windy": 4807,
      "condu": 4808,
      "batters": 4809,
      "flore": 4810,
      "plaque": 4811,
      "removed": 4812,
      "stead": 4813,
      "autumn": 4814,
      "seeing": 4815,
      "ific": 4816,
      "turquo": 4817,
      "protest": 4818,
      "rotten": 4819,
      "warming": 4820,
      "flavored": 4821,
      "avocado": 4822,
      "hummingbird": 4823,
      "knacks": 4824,
      "cafeteria": 4825,
      "smothered": 4826,
      "turquoise": 4827,
      "cry": 4828,
      "dar": 4829,
      "dance": 4830,
      "found": 4831,
      "national": 4832,
      "sure": 4833,
      "stars": 4834,
      "escal": 4835,
      "idated": 4836,
      "sells": 4837,
      "cemeter": 4838,
      "grain": 4839,
      "grabs": 4840,
      "pired": 4841,
      "lives": 4842,
      "lapidated": 4843,
      "handed": 4844,
      "underwear": 4845,
      "kiteboarding": 4846,
      "pregn": 4847,
      "noses": 4848,
      "paneled": 4849,
      "expan": 4850,
      "submerged": 4851,
      "kittens": 4852,
      "shady": 4853,
      "pours": 4854,
      "lovely": 4855,
      "lanes": 4856,
      "politan": 4857,
      "skyscrapers": 4858,
      "rhino": 4859,
      "sexy": 4860,
      "raspberries": 4861,
      "homes": 4862,
      "cemetery": 4863,
      "craw": 4864,
      "gin": 4865,
      "gone": 4866,
      "lat": 4867,
      "sli": 4868,
      "enth": 4869,
      "web": 4870,
      "skills": 4871,
      "lapse": 4872,
      "distric": 4873,
      "sandwhich": 4874,
      "mirrored": 4875,
      "passed": 4876,
      "meet": 4877,
      "marker": 4878,
      "cuddling": 4879,
      "particip": 4880,
      "trails": 4881,
      "intense": 4882,
      "hammer": 4883,
      "earth": 4884,
      "lent": 4885,
      "gentlemen": 4886,
      "lounges": 4887,
      "depicts": 4888,
      "slaw": 4889,
      "splash": 4890,
      "garnished": 4891,
      "bumper": 4892,
      "district": 4893,
      "fis": 4894,
      "faded": 4895,
      "mc": 4896,
      "ranch": 4897,
      "rises": 4898,
      "res": 4899,
      "resid": 4900,
      "ston": 4901,
      "radi": 4902,
      "wok": 4903,
      "unching": 4904,
      "buying": 4905,
      "rooms": 4906,
      "ridden": 4907,
      "pale": 4908,
      "trey": 4909,
      "tip": 4910,
      "crowds": 4911,
      "bricked": 4912,
      "marine": 4913,
      "accompan": 4914,
      "wrapping": 4915,
      "blows": 4916,
      "bagels": 4917,
      "compete": 4918,
      "speeds": 4919,
      "clad": 4920,
      "shadows": 4921,
      "burnt": 4922,
      "western": 4923,
      "ified": 4924,
      "facility": 4925,
      "expression": 4926,
      "embracing": 4927,
      "gazelle": 4928,
      "ambulance": 4929,
      "pregnant": 4930,
      "east": 4931,
      "your": 4932,
      "ister": 4933,
      "seed": 4934,
      "pled": 4935,
      "trailing": 4936,
      "lli": 4937,
      "buy": 4938,
      "ripen": 4939,
      "pac": 4940,
      "torn": 4941,
      "tains": 4942,
      "linens": 4943,
      "spir": 4944,
      "ished": 4945,
      "flage": 4946,
      "milking": 4947,
      "wireless": 4948,
      "dais": 4949,
      "stalk": 4950,
      "indicates": 4951,
      "lifted": 4952,
      "digging": 4953,
      "metropolitan": 4954,
      "splashing": 4955,
      "waffle": 4956,
      "snuggling": 4957,
      "belongings": 4958,
      "hundreds": 4959,
      "dairy": 4960,
      "gth": 4961,
      "hid": 4962,
      "mama": 4963,
      "nas": 4964,
      "native": 4965,
      "troll": 4966,
      "ug": 4967,
      "intric": 4968,
      "ares": 4969,
      "ofo": 4970,
      "retail": 4971,
      "tock": 4972,
      "bucks": 4973,
      "busted": 4974,
      "cel": 4975,
      "carving": 4976,
      "wines": 4977,
      "backhand": 4978,
      "ult": 4979,
      "dilapidated": 4980,
      "ticket": 4981,
      "platters": 4982,
      "paperwork": 4983,
      "raining": 4984,
      "knick": 4985,
      "except": 4986,
      "wetsuits": 4987,
      "eyed": 4988,
      "pushes": 4989,
      "magazines": 4990,
      "milling": 4991,
      "canada": 4992,
      "commun": 4993,
      "smoothie": 4994,
      "camouflage": 4995,
      "gor": 4996,
      "ked": 4997,
      "lite": 4998,
      "swa": 4999,
      "var": 5000,
      "zip": 5001,
      "ropes": 5002,
      "secur": 5003,
      "beers": 5004,
      "admir": 5005,
      "ased": 5006,
      "gram": 5007,
      "condit": 5008,
      "litter": 5009,
      "tiv": 5010,
      "vend": 5011,
      "vending": 5012,
      "guiding": 5013,
      "shelter": 5014,
      "lands": 5015,
      "mouths": 5016,
      "vane": 5017,
      "patrons": 5018,
      "cracked": 5019,
      "pulated": 5020,
      "function": 5021,
      "length": 5022,
      "gener": 5023,
      "knocked": 5024,
      "skyscraper": 5025,
      "athletic": 5026,
      "medicine": 5027,
      "intricate": 5028,
      "ofoam": 5029,
      "security": 5030,
      "ava": 5031,
      "mur": 5032,
      "overs": 5033,
      "rofoam": 5034,
      "tic": 5035,
      "anal": 5036,
      "rele": 5037,
      "retro": 5038,
      "already": 5039,
      "chu": 5040,
      "chat": 5041,
      "raises": 5042,
      "seeds": 5043,
      "docks": 5044,
      "tabletop": 5045,
      "caboo": 5046,
      "waste": 5047,
      "moss": 5048,
      "live": 5049,
      "zzle": 5050,
      "rought": 5051,
      "littered": 5052,
      "daylight": 5053,
      "pretending": 5054,
      "server": 5055,
      "sunflowers": 5056,
      "holders": 5057,
      "arian": 5058,
      "processor": 5059,
      "shell": 5060,
      "styrofoam": 5061,
      "necklace": 5062,
      "blocked": 5063,
      "transporting": 5064,
      "clip": 5065,
      "partial": 5066,
      "deliver": 5067,
      "ginger": 5068,
      "attend": 5069,
      "attending": 5070,
      "oddly": 5071,
      "cherries": 5072,
      "pumpkins": 5073,
      "examining": 5074,
      "twilight": 5075,
      "amidst": 5076,
      "lettering": 5077,
      "incline": 5078,
      "inspecting": 5079,
      "visitors": 5080,
      "remains": 5081,
      "squirrel": 5082,
      "chalk": 5083,
      "bronze": 5084,
      "frizbee": 5085,
      "crystal": 5086,
      "escalator": 5087,
      "livestock": 5088,
      "admiring": 5089,
      "vendors": 5090,
      "dal": 5091,
      "gates": 5092,
      "rig": 5093,
      "sip": 5094,
      "tof": 5095,
      "ually": 5096,
      "orch": 5097,
      "bells": 5098,
      "velo": 5099,
      "grouping": 5100,
      "weed": 5101,
      "backed": 5102,
      "teal": 5103,
      "sandals": 5104,
      "angled": 5105,
      "goose": 5106,
      "colum": 5107,
      "boxing": 5108,
      "decorate": 5109,
      "pita": 5110,
      "bottled": 5111,
      "deckered": 5112,
      "exotic": 5113,
      "job": 5114,
      "triple": 5115,
      "squares": 5116,
      "washroom": 5117,
      "arrows": 5118,
      "seafood": 5119,
      "approach": 5120,
      "napping": 5121,
      "dense": 5122,
      "barely": 5123,
      "octop": 5124,
      "archway": 5125,
      "bundled": 5126,
      "thumb": 5127,
      "pillars": 5128,
      "describe": 5129,
      "destination": 5130,
      "alert": 5131,
      "tangerines": 5132,
      "equestrian": 5133,
      "caboose": 5134,
      "gown": 5135,
      "kra": 5136,
      "kris": 5137,
      "sound": 5138,
      "edges": 5139,
      "idly": 5140,
      "hovering": 5141,
      "cact": 5142,
      "pilot": 5143,
      "otherwise": 5144,
      "walked": 5145,
      "year": 5146,
      "stoplights": 5147,
      "formally": 5148,
      "tier": 5149,
      "televisions": 5150,
      "panora": 5151,
      "cane": 5152,
      "duff": 5153,
      "hairy": 5154,
      "artic": 5155,
      "gerator": 5156,
      "washed": 5157,
      "mascot": 5158,
      "captured": 5159,
      "owners": 5160,
      "returns": 5161,
      "reclining": 5162,
      "roasted": 5163,
      "tilted": 5164,
      "citrus": 5165,
      "tofu": 5166,
      "ale": 5167,
      "dled": 5168,
      "oid": 5169,
      "rv": 5170,
      "vio": 5171,
      "recre": 5172,
      "record": 5173,
      "sts": 5174,
      "chee": 5175,
      "neut": 5176,
      "hovers": 5177,
      "frog": 5178,
      "typical": 5179,
      "forming": 5180,
      "contest": 5181,
      "barric": 5182,
      "sectional": 5183,
      "packaged": 5184,
      "born": 5185,
      "calcul": 5186,
      "trashcan": 5187,
      "swit": 5188,
      "puppies": 5189,
      "grinds": 5190,
      "adjusts": 5191,
      "namon": 5192,
      "divided": 5193,
      "chase": 5194,
      "presented": 5195,
      "pencils": 5196,
      "horizon": 5197,
      "mannequin": 5198,
      "cinnamon": 5199,
      "radiator": 5200,
      "accompanied": 5201,
      "bie": 5202,
      "fist": 5203,
      "pc": 5204,
      "era": 5205,
      "wiping": 5206,
      "roam": 5207,
      "las": 5208,
      "ory": 5209,
      "ades": 5210,
      "ply": 5211,
      "ascending": 5212,
      "flips": 5213,
      "kits": 5214,
      "master": 5215,
      "mono": 5216,
      "emporary": 5217,
      "contemporary": 5218,
      "shells": 5219,
      "shepher": 5220,
      "packages": 5221,
      "calves": 5222,
      "burrit": 5223,
      "appearing": 5224,
      "claw": 5225,
      "advertisements": 5226,
      "basic": 5227,
      "taxiing": 5228,
      "fixture": 5229,
      "goalie": 5230,
      "fighters": 5231,
      "heater": 5232,
      "bulldog": 5233,
      "enthus": 5234,
      "aisle": 5235,
      "wou": 5236,
      "itude": 5237,
      "ofa": 5238,
      "stere": 5239,
      "enor": 5240,
      "laund": 5241,
      "whis": 5242,
      "because": 5243,
      "dots": 5244,
      "coal": 5245,
      "grave": 5246,
      "amuse": 5247,
      "beached": 5248,
      "goers": 5249,
      "biking": 5250,
      "safe": 5251,
      "hazy": 5252,
      "monster": 5253,
      "pane": 5254,
      "jug": 5255,
      "exer": 5256,
      "partments": 5257,
      "seem": 5258,
      "stairway": 5259,
      "hooded": 5260,
      "starbucks": 5261,
      "extending": 5262,
      "reflects": 5263,
      "reflective": 5264,
      "tanker": 5265,
      "recei": 5266,
      "pumpkin": 5267,
      "examines": 5268,
      "peacock": 5269,
      "ancient": 5270,
      "symbol": 5271,
      "ceremony": 5272,
      "conductor": 5273,
      "hidden": 5274,
      "kraut": 5275,
      "would": 5276,
      "enormous": 5277,
      "12": 5278,
      "eff": 5279,
      "gull": 5280,
      "hedge": 5281,
      "lor": 5282,
      "rum": 5283,
      "spark": 5284,
      "thread": 5285,
      "tori": 5286,
      "radishes": 5287,
      "raging": 5288,
      "sell": 5289,
      "hoop": 5290,
      "taco": 5291,
      "airstrip": 5292,
      "cole": 5293,
      "waling": 5294,
      "mock": 5295,
      "foo": 5296,
      "anted": 5297,
      "waterfront": 5298,
      "rust": 5299,
      "defen": 5300,
      "cityscape": 5301,
      "motorcy": 5302,
      "fif": 5303,
      "surfboarding": 5304,
      "courts": 5305,
      "views": 5306,
      "refrid": 5307,
      "scissor": 5308,
      "markers": 5309,
      "scenery": 5310,
      "candies": 5311,
      "flash": 5312,
      "shopped": 5313,
      "ornam": 5314,
      "businessman": 5315,
      "troph": 5316,
      "hooks": 5317,
      "conversing": 5318,
      "recliner": 5319,
      "creepy": 5320,
      "named": 5321,
      "affe": 5322,
      "renovated": 5323,
      "cramped": 5324,
      "galloping": 5325,
      "analog": 5326,
      "amusement": 5327,
      "11": 5328,
      "ci": 5329,
      "danger": 5330,
      "dvd": 5331,
      "gang": 5332,
      "hallow": 5333,
      "might": 5334,
      "wig": 5335,
      "stay": 5336,
      "ordin": 5337,
      "bably": 5338,
      "pear": 5339,
      "bud": 5340,
      "terri": 5341,
      "caps": 5342,
      "capit": 5343,
      "snap": 5344,
      "foal": 5345,
      "licks": 5346,
      "weight": 5347,
      "mag": 5348,
      "inder": 5349,
      "angling": 5350,
      "sesame": 5351,
      "readies": 5352,
      "agon": 5353,
      "removing": 5354,
      "strips": 5355,
      "shaved": 5356,
      "huddle": 5357,
      "vanilla": 5358,
      "famous": 5359,
      "wilde": 5360,
      "swims": 5361,
      "wrist": 5362,
      "captiv": 5363,
      "windmill": 5364,
      "climbs": 5365,
      "charging": 5366,
      "spinning": 5367,
      "fedora": 5368,
      "barriers": 5369,
      "sparsely": 5370,
      "instrument": 5371,
      "biscuits": 5372,
      "futon": 5373,
      "evergreen": 5374,
      "bouncing": 5375,
      "grapefruit": 5376,
      "flamingos": 5377,
      "instructions": 5378,
      "recording": 5379,
      "ilable": 5380,
      "focused": 5381,
      "available": 5382,
      "octopus": 5383,
      "neutral": 5384,
      "shepherd": 5385,
      "stereo": 5386,
      "exerc": 5387,
      "bom": 5388,
      "frown": 5389,
      "vet": 5390,
      "vans": 5391,
      "zuc": 5392,
      "inery": 5393,
      "atv": 5394,
      "tourn": 5395,
      "wired": 5396,
      "alpine": 5397,
      "raquet": 5398,
      "boot": 5399,
      "peach": 5400,
      "standard": 5401,
      "arella": 5402,
      "ske": 5403,
      "grove": 5404,
      "personnel": 5405,
      "sidecar": 5406,
      "came": 5407,
      "camel": 5408,
      "downward": 5409,
      "populated": 5410,
      "mozz": 5411,
      "ford": 5412,
      "yees": 5413,
      "entire": 5414,
      "fell": 5415,
      "browns": 5416,
      "sunshine": 5417,
      "guide": 5418,
      "probably": 5419,
      "workstation": 5420,
      "patri": 5421,
      "struct": 5422,
      "packing": 5423,
      "settings": 5424,
      "marching": 5425,
      "burner": 5426,
      "positions": 5427,
      "dragging": 5428,
      "practices": 5429,
      "toned": 5430,
      "stormy": 5431,
      "noodle": 5432,
      "complex": 5433,
      "dropping": 5434,
      "peeks": 5435,
      "burners": 5436,
      "beanie": 5437,
      "architect": 5438,
      "handicapped": 5439,
      "employees": 5440,
      "concert": 5441,
      "sleigh": 5442,
      "expanse": 5443,
      "trolly": 5444,
      "ornaments": 5445,
      "halloween": 5446,
      "captivity": 5447,
      "zucchin": 5448,
      "tournament": 5449,
      "mozzarella": 5450,
      "bone": 5451,
      "fting": 5452,
      "mm": 5453,
      "mice": 5454,
      "som": 5455,
      "vation": 5456,
      "yak": 5457,
      "yummy": 5458,
      "ined": 5459,
      "think": 5460,
      "theater": 5461,
      "ison": 5462,
      "wil": 5463,
      "rots": 5464,
      "ettes": 5465,
      "sity": 5466,
      "upwards": 5467,
      "skat": 5468,
      "poor": 5469,
      "mosa": 5470,
      "snowsuit": 5471,
      "lized": 5472,
      "baseman": 5473,
      "gift": 5474,
      "plantains": 5475,
      "overgrown": 5476,
      "handled": 5477,
      "vessel": 5478,
      "vegetarian": 5479,
      "chews": 5480,
      "solar": 5481,
      "trans": 5482,
      "barber": 5483,
      "sections": 5484,
      "jack": 5485,
      "breads": 5486,
      "stylish": 5487,
      "salt": 5488,
      "salon": 5489,
      "salmon": 5490,
      "flowery": 5491,
      "jewel": 5492,
      "structed": 5493,
      "machinery": 5494,
      "drapes": 5495,
      "ponies": 5496,
      "grooming": 5497,
      "trot": 5498,
      "delivering": 5499,
      "finishing": 5500,
      "bandana": 5501,
      "pressing": 5502,
      "film": 5503,
      "moment": 5504,
      "casual": 5505,
      "hunched": 5506,
      "florets": 5507,
      "residence": 5508,
      "daisies": 5509,
      "laundry": 5510,
      "refridgerator": 5511,
      "zucchini": 5512,
      "ech": 5513,
      "loft": 5514,
      "oy": 5515,
      "rink": 5516,
      "wedge": 5517,
      "reins": 5518,
      "almon": 5519,
      "omy": 5520,
      "launch": 5521,
      "ples": 5522,
      "peaches": 5523,
      "pling": 5524,
      "buds": 5525,
      "parrots": 5526,
      "cocon": 5527,
      "waist": 5528,
      "unders": 5529,
      "compartments": 5530,
      "import": 5531,
      "descending": 5532,
      "ental": 5533,
      "congre": 5534,
      "mp3": 5535,
      "underground": 5536,
      "bib": 5537,
      "oked": 5538,
      "fencing": 5539,
      "engaging": 5540,
      "slop": 5541,
      "spreads": 5542,
      "proper": 5543,
      "donal": 5544,
      "household": 5545,
      "ishment": 5546,
      "speech": 5547,
      "hug": 5548,
      "marketplace": 5549,
      "garb": 5550,
      "spaces": 5551,
      "wheelie": 5552,
      "bloss": 5553,
      "hamburgers": 5554,
      "attempt": 5555,
      "turtle": 5556,
      "numeral": 5557,
      "weathered": 5558,
      "languages": 5559,
      "reception": 5560,
      "oxen": 5561,
      "athletes": 5562,
      "fleet": 5563,
      "currently": 5564,
      "patiently": 5565,
      "markings": 5566,
      "slippers": 5567,
      "gadgets": 5568,
      "resemble": 5569,
      "crawling": 5570,
      "ugly": 5571,
      "cactus": 5572,
      "cong": 5573,
      "ixed": 5574,
      "nature": 5575,
      "pend": 5576,
      "vir": 5577,
      "rous": 5578,
      "ense": 5579,
      "ckled": 5580,
      "lders": 5581,
      "idle": 5582,
      "blades": 5583,
      "laps": 5584,
      "concentr": 5585,
      "aper": 5586,
      "goof": 5587,
      "goble": 5588,
      "sunlit": 5589,
      "stuffing": 5590,
      "prov": 5591,
      "interstate": 5592,
      "clut": 5593,
      "known": 5594,
      "beautifully": 5595,
      "crab": 5596,
      "carried": 5597,
      "cloths": 5598,
      "warns": 5599,
      "needle": 5600,
      "carefully": 5601,
      "destroy": 5602,
      "affixed": 5603,
      "presenting": 5604,
      "royal": 5605,
      "poured": 5606,
      "trekking": 5607,
      "memorial": 5608,
      "krispy": 5609,
      "mosaic": 5610,
      "important": 5611,
      "awaits": 5612,
      "bon": 5613,
      "ien": 5614,
      "vies": 5615,
      "zo": 5616,
      "ener": 5617,
      "wooly": 5618,
      "tact": 5619,
      "trak": 5620,
      "added": 5621,
      "fron": 5622,
      "poo": 5623,
      "foraging": 5624,
      "clocktower": 5625,
      "diagon": 5626,
      "showroom": 5627,
      "banquet": 5628,
      "bunt": 5629,
      "linen": 5630,
      "slanted": 5631,
      "spon": 5632,
      "herded": 5633,
      "marks": 5634,
      "haircut": 5635,
      "stylized": 5636,
      "flowering": 5637,
      "clothed": 5638,
      "buried": 5639,
      "vertical": 5640,
      "support": 5641,
      "teens": 5642,
      "hift": 5643,
      "umption": 5644,
      "nasty": 5645,
      "makeshift": 5646,
      "charger": 5647,
      "consumption": 5648,
      "tossed": 5649,
      "attended": 5650,
      "filthy": 5651,
      "levels": 5652,
      "tatto": 5653,
      "political": 5654,
      "cables": 5655,
      "channel": 5656,
      "pencil": 5657,
      "croissant": 5658,
      "mcdonal": 5659,
      "calculator": 5660,
      "virgin": 5661,
      "broadway": 5662,
      "bbling": 5663,
      "cers": 5664,
      "kreme": 5665,
      "tit": 5666,
      "thom": 5667,
      "ann": 5668,
      "ene": 5669,
      "chment": 5670,
      "lob": 5671,
      "peaking": 5672,
      "host": 5673,
      "hoag": 5674,
      "doctor": 5675,
      "pokes": 5676,
      "amtrak": 5677,
      "snowing": 5678,
      "antic": 5679,
      "elev": 5680,
      "overlook": 5681,
      "lapping": 5682,
      "tell": 5683,
      "diaper": 5684,
      "fences": 5685,
      "headlights": 5686,
      "proud": 5687,
      "barge": 5688,
      "sleepy": 5689,
      "bridle": 5690,
      "spewing": 5691,
      "shack": 5692,
      "substance": 5693,
      "median": 5694,
      "capture": 5695,
      "exter": 5696,
      "depicted": 5697,
      "customer": 5698,
      "cushions": 5699,
      "trimmed": 5700,
      "peacefully": 5701,
      "twent": 5702,
      "supermarket": 5703,
      "pelican": 5704,
      "victori": 5705,
      "blooming": 5706,
      "ornamental": 5707,
      "crocheted": 5708,
      "instructor": 5709,
      "stockings": 5710,
      "patriotic": 5711,
      "hoagie": 5712,
      "00": 5713,
      "esta": 5714,
      "mers": 5715,
      "plo": 5716,
      "tone": 5717,
      "instead": 5718,
      "enough": 5719,
      "alls": 5720,
      "woo": 5721,
      "hockey": 5722,
      "layed": 5723,
      "asia": 5724,
      "motes": 5725,
      "blazer": 5726,
      "demo": 5727,
      "angles": 5728,
      "goth": 5729,
      "tips": 5730,
      "england": 5731,
      "hash": 5732,
      "aint": 5733,
      "proce": 5734,
      "landsca": 5735,
      "worked": 5736,
      "expired": 5737,
      "staff": 5738,
      "helmeted": 5739,
      "squats": 5740,
      "wrong": 5741,
      "captive": 5742,
      "avid": 5743,
      "grilling": 5744,
      "housing": 5745,
      "product": 5746,
      "leashes": 5747,
      "ferris": 5748,
      "ratul": 5749,
      "coaster": 5750,
      "lanter": 5751,
      "glider": 5752,
      "snuggled": 5753,
      "combing": 5754,
      "retriever": 5755,
      "yacht": 5756,
      "wildebee": 5757,
      "congratul": 5758,
      "destroyed": 5759,
      "establ": 5760,
      "ase": 5761,
      "aboard": 5762,
      "fto": 5763,
      "mber": 5764,
      "rally": 5765,
      "sigh": 5766,
      "ini": 5767,
      "lefto": 5768,
      "repl": 5769,
      "recent": 5770,
      "root": 5771,
      "laden": 5772,
      "woven": 5773,
      "bathe": 5774,
      "unused": 5775,
      "boarded": 5776,
      "cave": 5777,
      "camo": 5778,
      "casting": 5779,
      "wai": 5780,
      "flank": 5781,
      "fol": 5782,
      "blueberry": 5783,
      "motorboat": 5784,
      "overturned": 5785,
      "tem": 5786,
      "brass": 5787,
      "stoves": 5788,
      "headband": 5789,
      "viewer": 5790,
      "sidewalks": 5791,
      "hau": 5792,
      "herds": 5793,
      "mates": 5794,
      "sleeve": 5795,
      "halfway": 5796,
      "styles": 5797,
      "husky": 5798,
      "patrol": 5799,
      "minim": 5800,
      "cali": 5801,
      "cris": 5802,
      "speaks": 5803,
      "studying": 5804,
      "fedex": 5805,
      "flavors": 5806,
      "central": 5807,
      "horizont": 5808,
      "rapids": 5809,
      "nuzzling": 5810,
      "quarters": 5811,
      "columns": 5812,
      "recreational": 5813,
      "structures": 5814,
      "architectural": 5815,
      "exterior": 5816,
      "mad": 5817,
      "oat": 5818,
      "sund": 5819,
      "sorts": 5820,
      "wrought": 5821,
      "took": 5822,
      "peps": 5823,
      "hore": 5824,
      "ately": 5825,
      "france": 5826,
      "plun": 5827,
      "coated": 5828,
      "signing": 5829,
      "plank": 5830,
      "mainten": 5831,
      "fireman": 5832,
      "prey": 5833,
      "taller": 5834,
      "nook": 5835,
      "arium": 5836,
      "contin": 5837,
      "highchair": 5838,
      "dude": 5839,
      "salsa": 5840,
      "lamppost": 5841,
      "macbook": 5842,
      "swift": 5843,
      "iously": 5844,
      "mitts": 5845,
      "models": 5846,
      "teapot": 5847,
      "eyeglasses": 5848,
      "claus": 5849,
      "consum": 5850,
      "groceries": 5851,
      "izers": 5852,
      "wander": 5853,
      "employ": 5854,
      "lunging": 5855,
      "activities": 5856,
      "cranes": 5857,
      "shooting": 5858,
      "swamp": 5859,
      "burrito": 5860,
      "underside": 5861,
      "tattoos": 5862,
      "thomas": 5863,
      "pepsi": 5864,
      "maintenance": 5865,
      "30": 5866,
      "broad": 5867,
      "diced": 5868,
      "hound": 5869,
      "hides": 5870,
      "kers": 5871,
      "nia": 5872,
      "scou": 5873,
      "inning": 5874,
      "arts": 5875,
      "resc": 5876,
      "isted": 5877,
      "stages": 5878,
      "lock": 5879,
      "loves": 5880,
      "pleas": 5881,
      "taste": 5882,
      "bust": 5883,
      "pauses": 5884,
      "pood": 5885,
      "loose": 5886,
      "mens": 5887,
      "chihua": 5888,
      "constructed": 5889,
      "contact": 5890,
      "diffic": 5891,
      "quaint": 5892,
      "animated": 5893,
      "vender": 5894,
      "novel": 5895,
      "certain": 5896,
      "protru": 5897,
      "matian": 5898,
      "juic": 5899,
      "forehead": 5900,
      "ernal": 5901,
      "welcome": 5902,
      "controlled": 5903,
      "newspa": 5904,
      "mbly": 5905,
      "docking": 5906,
      "gloomy": 5907,
      "groomed": 5908,
      "swiss": 5909,
      "tosses": 5910,
      "cheeses": 5911,
      "receive": 5912,
      "gesture": 5913,
      "hearts": 5914,
      "curiously": 5915,
      "assembly": 5916,
      "hurdle": 5917,
      "pantry": 5918,
      "murky": 5919,
      "dalmatian": 5920,
      "affection": 5921,
      "chihuahua": 5922,
      "newspapers": 5923,
      "18": 5924,
      "ask": 5925,
      "cly": 5926,
      "knot": 5927,
      "nok": 5928,
      "orous": 5929,
      "pong": 5930,
      "twel": 5931,
      "yield": 5932,
      "stit": 5933,
      "races": 5934,
      "boiled": 5935,
      "sear": 5936,
      "wheat": 5937,
      "unoccupied": 5938,
      "layers": 5939,
      "shark": 5940,
      "wavy": 5941,
      "paying": 5942,
      "pops": 5943,
      "carame": 5944,
      "mos": 5945,
      "fornia": 5946,
      "rowboat": 5947,
      "greet": 5948,
      "backseat": 5949,
      "toilette": 5950,
      "teach": 5951,
      "frisby": 5952,
      "crop": 5953,
      "bows": 5954,
      "ggling": 5955,
      "billow": 5956,
      "bring": 5957,
      "spreading": 5958,
      "mats": 5959,
      "paneling": 5960,
      "meatball": 5961,
      "meatballs": 5962,
      "surroundings": 5963,
      "graphic": 5964,
      "modified": 5965,
      "salads": 5966,
      "observe": 5967,
      "trailers": 5968,
      "beauty": 5969,
      "sauer": 5970,
      "pretze": 5971,
      "hammock": 5972,
      "strap": 5973,
      "allows": 5974,
      "dale": 5975,
      "lifeguard": 5976,
      "stalks": 5977,
      "streamers": 5978,
      "boulders": 5979,
      "handlebars": 5980,
      "scrambled": 5981,
      "maintain": 5982,
      "fairly": 5983,
      "fryer": 5984,
      "appetizers": 5985,
      "maneuver": 5986,
      "contraption": 5987,
      "aquarium": 5988,
      "elevator": 5989,
      "gothic": 5990,
      "replica": 5991,
      "california": 5992,
      "rescue": 5993,
      "brus": 5994,
      "dangling": 5995,
      "pum": 5996,
      "vas": 5997,
      "yo": 5998,
      "inju": 5999,
      "leop": 6000,
      "ition": 6001,
      "robes": 6002,
      "bases": 6003,
      "pective": 6004,
      "standup": 6005,
      "shak": 6006,
      "perspective": 6007,
      "cape": 6008,
      "ridge": 6009,
      "packet": 6010,
      "amen": 6011,
      "blade": 6012,
      "parks": 6013,
      "outdated": 6014,
      "common": 6015,
      "couples": 6016,
      "depar": 6017,
      "india": 6018,
      "throughout": 6019,
      "brownies": 6020,
      "rundown": 6021,
      "column": 6022,
      "checked": 6023,
      "broth": 6024,
      "brushed": 6025,
      "canvas": 6026,
      "gathers": 6027,
      "triangle": 6028,
      "crazy": 6029,
      "newborn": 6030,
      "paddock": 6031,
      "swee": 6032,
      "stract": 6033,
      "misses": 6034,
      "tongs": 6035,
      "prints": 6036,
      "ribbons": 6037,
      "arrive": 6038,
      "kayaks": 6039,
      "divider": 6040,
      "assembled": 6041,
      "demonstration": 6042,
      "dunkin": 6043,
      "investigating": 6044,
      "community": 6045,
      "condition": 6046,
      "terrier": 6047,
      "skew": 6048,
      "twenty": 6049,
      "recently": 6050,
      "plunger": 6051,
      "employee": 6052,
      "difficult": 6053,
      "juicer": 6054,
      "nokia": 6055,
      "twelve": 6056,
      "injured": 6057,
      "leopard": 6058,
      "award": 6059,
      "bm": 6060,
      "gall": 6061,
      "ith": 6062,
      "ize": 6063,
      "pound": 6064,
      "tions": 6065,
      "via": 6066,
      "wis": 6067,
      "ona": 6068,
      "lev": 6069,
      "stro": 6070,
      "seal": 6071,
      "bake": 6072,
      "unknown": 6073,
      "dol": 6074,
      "playfully": 6075,
      "streetlights": 6076,
      "coaches": 6077,
      "tends": 6078,
      "combo": 6079,
      "gifts": 6080,
      "backside": 6081,
      "fixed": 6082,
      "boating": 6083,
      "perfor": 6084,
      "angel": 6085,
      "sung": 6086,
      "boxed": 6087,
      "fours": 6088,
      "rounded": 6089,
      "whose": 6090,
      "diners": 6091,
      "suc": 6092,
      "abstract": 6093,
      "steal": 6094,
      "cheeseburger": 6095,
      "gau": 6096,
      "shears": 6097,
      "spec": 6098,
      "swir": 6099,
      "stral": 6100,
      "vines": 6101,
      "butcher": 6102,
      "ceilings": 6103,
      "austral": 6104,
      "palace": 6105,
      "miscell": 6106,
      "glaze": 6107,
      "laughs": 6108,
      "simul": 6109,
      "patterns": 6110,
      "operated": 6111,
      "cycling": 6112,
      "bundt": 6113,
      "learn": 6114,
      "keeper": 6115,
      "samsung": 6116,
      "bordered": 6117,
      "techno": 6118,
      "foamy": 6119,
      "crumbs": 6120,
      "spanish": 6121,
      "lunges": 6122,
      "luxury": 6123,
      "wrestling": 6124,
      "graduation": 6125,
      "mechanical": 6126,
      "spiral": 6127,
      "magnet": 6128,
      "trotting": 6129,
      "goofy": 6130,
      "minimal": 6131,
      "oatmeal": 6132,
      "poodle": 6133,
      "sauerkraut": 6134,
      "bing": 6135,
      "bits": 6136,
      "dding": 6137,
      "david": 6138,
      "emo": 6139,
      "ipe": 6140,
      "tons": 6141,
      "yer": 6142,
      "inner": 6143,
      "stroll": 6144,
      "chica": 6145,
      "etted": 6146,
      "bored": 6147,
      "boston": 6148,
      "mance": 6149,
      "peer": 6150,
      "holly": 6151,
      "union": 6152,
      "skele": 6153,
      "playful": 6154,
      "airliners": 6155,
      "sma": 6156,
      "cabs": 6157,
      "ami": 6158,
      "lizard": 6159,
      "forrest": 6160,
      "anticip": 6161,
      "height": 6162,
      "overalls": 6163,
      "maje": 6164,
      "feast": 6165,
      "conven": 6166,
      "scent": 6167,
      "goog": 6168,
      "hitched": 6169,
      "program": 6170,
      "visor": 6171,
      "least": 6172,
      "lighter": 6173,
      "pancake": 6174,
      "nightstands": 6175,
      "pitches": 6176,
      "outhouse": 6177,
      "juven": 6178,
      "squee": 6179,
      "submarine": 6180,
      "bushy": 6181,
      "families": 6182,
      "planted": 6183,
      "flatbread": 6184,
      "arring": 6185,
      "mason": 6186,
      "sweets": 6187,
      "crying": 6188,
      "rugby": 6189,
      "blown": 6190,
      "starts": 6191,
      "propellor": 6192,
      "relig": 6193,
      "leafless": 6194,
      "rearview": 6195,
      "ironing": 6196,
      "peels": 6197,
      "twig": 6198,
      "converted": 6199,
      "north": 6200,
      "croissants": 6201,
      "discussing": 6202,
      "hours": 6203,
      "oversized": 6204,
      "trophy": 6205,
      "jewelry": 6206,
      "establishment": 6207,
      "caramel": 6208,
      "brussel": 6209,
      "performance": 6210,
      "technolog": 6211,
      "chicago": 6212,
      "majestic": 6213,
      "bound": 6214,
      "gig": 6215,
      "ience": 6216,
      "oar": 6217,
      "pm": 6218,
      "zom": 6219,
      "ress": 6220,
      "isco": 6221,
      "strain": 6222,
      "seper": 6223,
      "beads": 6224,
      "icular": 6225,
      "atee": 6226,
      "coupe": 6227,
      "snowman": 6228,
      "fellow": 6229,
      "feather": 6230,
      "batch": 6231,
      "banks": 6232,
      "banners": 6233,
      "quil": 6234,
      "shovel": 6235,
      "sunrise": 6236,
      "contem": 6237,
      "panting": 6238,
      "abund": 6239,
      "microphones": 6240,
      "obsc": 6241,
      "curbside": 6242,
      "bitten": 6243,
      "feature": 6244,
      "harley": 6245,
      "costumed": 6246,
      "aneous": 6247,
      "discs": 6248,
      "pineapples": 6249,
      "alleyway": 6250,
      "burned": 6251,
      "companion": 6252,
      "projection": 6253,
      "bundles": 6254,
      "recipe": 6255,
      "cottage": 6256,
      "roasting": 6257,
      "seasoned": 6258,
      "peaceful": 6259,
      "tightly": 6260,
      "twigs": 6261,
      "eager": 6262,
      "labels": 6263,
      "navig": 6264,
      "wreath": 6265,
      "region": 6266,
      "ripened": 6267,
      "releasing": 6268,
      "chatting": 6269,
      "flanked": 6270,
      "folks": 6271,
      "miscellaneous": 6272,
      "juvenile": 6273,
      "bark": 6274,
      "floo": 6275,
      "gum": 6276,
      "gummy": 6277,
      "mick": 6278,
      "pas": 6279,
      "sen": 6280,
      "ustr": 6281,
      "inal": 6282,
      "invol": 6283,
      "repairs": 6284,
      "last": 6285,
      "pelic": 6286,
      "unks": 6287,
      "peoples": 6288,
      "iel": 6289,
      "tens": 6290,
      "flour": 6291,
      "pilots": 6292,
      "pular": 6293,
      "bedside": 6294,
      "zzled": 6295,
      "uters": 6296,
      "bento": 6297,
      "ently": 6298,
      "fest": 6299,
      "battle": 6300,
      "livingroom": 6301,
      "stock": 6302,
      "slal": 6303,
      "saur": 6304,
      "soars": 6305,
      "hawai": 6306,
      "spraw": 6307,
      "promin": 6308,
      "monk": 6309,
      "curls": 6310,
      "canned": 6311,
      "ians": 6312,
      "shearing": 6313,
      "exe": 6314,
      "shakes": 6315,
      "cuddle": 6316,
      "pensive": 6317,
      "packaging": 6318,
      "grate": 6319,
      "acts": 6320,
      "centerpiece": 6321,
      "wedges": 6322,
      "freely": 6323,
      "toddlers": 6324,
      "nails": 6325,
      "allowed": 6326,
      "waterski": 6327,
      "drops": 6328,
      "celebratory": 6329,
      "pressed": 6330,
      "century": 6331,
      "saddled": 6332,
      "quiche": 6333,
      "knitting": 6334,
      "tricycle": 6335,
      "bison": 6336,
      "barbeque": 6337,
      "automobiles": 6338,
      "navigating": 6339,
      "revealing": 6340,
      "vibr": 6341,
      "seasoning": 6342,
      "participating": 6343,
      "varying": 6344,
      "panoramic": 6345,
      "effe": 6346,
      "almonds": 6347,
      "horizontal": 6348,
      "swiftly": 6349,
      "floored": 6350,
      "pelicans": 6351,
      "ae": 6352,
      "cc": 6353,
      "cred": 6354,
      "feel": 6355,
      "galley": 6356,
      "mph": 6357,
      "nie": 6358,
      "nets": 6359,
      "wth": 6360,
      "wants": 6361,
      "yawning": 6362,
      "ret": 6363,
      "rais": 6364,
      "irts": 6365,
      "sele": 6366,
      "whine": 6367,
      "bearing": 6368,
      "parlor": 6369,
      "cob": 6370,
      "gras": 6371,
      "popular": 6372,
      "antly": 6373,
      "tors": 6374,
      "brownie": 6375,
      "coral": 6376,
      "scri": 6377,
      "facial": 6378,
      "mount": 6379,
      "looked": 6380,
      "tible": 6381,
      "sox": 6382,
      "sunflower": 6383,
      "stovetop": 6384,
      "surrounds": 6385,
      "exhau": 6386,
      "sailors": 6387,
      "hamster": 6388,
      "prair": 6389,
      "dollar": 6390,
      "flipped": 6391,
      "collie": 6392,
      "buliding": 6393,
      "parasols": 6394,
      "messing": 6395,
      "volks": 6396,
      "indicate": 6397,
      "booths": 6398,
      "tusked": 6399,
      "beaks": 6400,
      "stately": 6401,
      "attraction": 6402,
      "gestures": 6403,
      "renovation": 6404,
      "mannequins": 6405,
      "details": 6406,
      "discussion": 6407,
      "beams": 6408,
      "bushels": 6409,
      "frowning": 6410,
      "diagonal": 6411,
      "victorian": 6412,
      "clydes": 6413,
      "religious": 6414,
      "date": 6415,
      "fet": 6416,
      "ild": 6417,
      "izer": 6418,
      "lt": 6419,
      "mont": 6420,
      "punch": 6421,
      "ances": 6422,
      "ander": 6423,
      "respe": 6424,
      "roped": 6425,
      "stam": 6426,
      "chunks": 6427,
      "lazy": 6428,
      "lavender": 6429,
      "oring": 6430,
      "mane": 6431,
      "mantel": 6432,
      "beag": 6433,
      "uphill": 6434,
      "admi": 6435,
      "smok": 6436,
      "pudding": 6437,
      "kitchenette": 6438,
      "oping": 6439,
      "disgu": 6440,
      "glassware": 6441,
      "childs": 6442,
      "handmade": 6443,
      "handler": 6444,
      "crooked": 6445,
      "aprons": 6446,
      "rung": 6447,
      "goatee": 6448,
      "preforming": 6449,
      "velvet": 6450,
      "memo": 6451,
      "dino": 6452,
      "cannot": 6453,
      "barb": 6454,
      "raincoat": 6455,
      "photographing": 6456,
      "numbered": 6457,
      "workspace": 6458,
      "controlling": 6459,
      "hairdryer": 6460,
      "expo": 6461,
      "platforms": 6462,
      "pointy": 6463,
      "directs": 6464,
      "matches": 6465,
      "swimmers": 6466,
      "transp": 6467,
      "baker": 6468,
      "rooftop": 6469,
      "arranging": 6470,
      "scaff": 6471,
      "cruising": 6472,
      "ifying": 6473,
      "tanks": 6474,
      "locations": 6475,
      "pinned": 6476,
      "sprayed": 6477,
      "parachutes": 6478,
      "repairing": 6479,
      "convertible": 6480,
      "activity": 6481,
      "fixes": 6482,
      "wonderful": 6483,
      "cheek": 6484,
      "barricade": 6485,
      "coconut": 6486,
      "davidson": 6487,
      "mickey": 6488,
      "slalom": 6489,
      "prairie": 6490,
      "fes": 6491,
      "gers": 6492,
      "glar": 6493,
      "grid": 6494,
      "gut": 6495,
      "jal": 6496,
      "sion": 6497,
      "uk": 6498,
      "arti": 6499,
      "toli": 6500,
      "lavis": 6501,
      "mani": 6502,
      "unt": 6503,
      "skirts": 6504,
      "shrub": 6505,
      "franc": 6506,
      "ieval": 6507,
      "bum": 6508,
      "tend": 6509,
      "ruler": 6510,
      "pub": 6511,
      "given": 6512,
      "hero": 6513,
      "tory": 6514,
      "hey": 6515,
      "teh": 6516,
      "offers": 6517,
      "handling": 6518,
      "scrub": 6519,
      "kiteboard": 6520,
      "sheeps": 6521,
      "tipped": 6522,
      "sales": 6523,
      "mature": 6524,
      "purses": 6525,
      "better": 6526,
      "cuto": 6527,
      "triangular": 6528,
      "forehand": 6529,
      "wildflowers": 6530,
      "grano": 6531,
      "crash": 6532,
      "profile": 6533,
      "medieval": 6534,
      "license": 6535,
      "dolly": 6536,
      "misty": 6537,
      "denim": 6538,
      "related": 6539,
      "gnar": 6540,
      "celebrate": 6541,
      "melons": 6542,
      "bbles": 6543,
      "masks": 6544,
      "dumpster": 6545,
      "peanuts": 6546,
      "needles": 6547,
      "sneaker": 6548,
      "silhouetted": 6549,
      "cockpit": 6550,
      "casually": 6551,
      "commuters": 6552,
      "legos": 6553,
      "symbols": 6554,
      "luxur": 6555,
      "defensive": 6556,
      "searching": 6557,
      "skeleton": 6558,
      "dinosaur": 6559,
      "lavish": 6560,
      "francisco": 6561,
      "granola": 6562,
      "await": 6563,
      "dental": 6564,
      "eiff": 6565,
      "fern": 6566,
      "mow": 6567,
      "nes": 6568,
      "pins": 6569,
      "tshirt": 6570,
      "tones": 6571,
      "usa": 6572,
      "vw": 6573,
      "vor": 6574,
      "yon": 6575,
      "erie": 6576,
      "arches": 6577,
      "rocket": 6578,
      "always": 6579,
      "cky": 6580,
      "manic": 6581,
      "blem": 6582,
      "advan": 6583,
      "doily": 6584,
      "ilia": 6585,
      "undy": 6586,
      "movies": 6587,
      "puff": 6588,
      "torted": 6589,
      "overview": 6590,
      "detour": 6591,
      "tells": 6592,
      "icebox": 6593,
      "dives": 6594,
      "tren": 6595,
      "cowboys": 6596,
      "eachother": 6597,
      "cheer": 6598,
      "plating": 6599,
      "ously": 6600,
      "interse": 6601,
      "racers": 6602,
      "halfpipe": 6603,
      "univer": 6604,
      "penny": 6605,
      "hugs": 6606,
      "tripod": 6607,
      "sque": 6608,
      "minutes": 6609,
      "cracker": 6610,
      "wraps": 6611,
      "straigh": 6612,
      "leafs": 6613,
      "bandan": 6614,
      "attentive": 6615,
      "filming": 6616,
      "nowhere": 6617,
      "score": 6618,
      "burgundy": 6619,
      "nibbling": 6620,
      "gazebo": 6621,
      "sampling": 6622,
      "normal": 6623,
      "spanning": 6624,
      "rooster": 6625,
      "socializing": 6626,
      "browsing": 6627,
      "drums": 6628,
      "mouses": 6629,
      "duffel": 6630,
      "switch": 6631,
      "capitol": 6632,
      "demolish": 6633,
      "gigantic": 6634,
      "festive": 6635,
      "hawaiian": 6636,
      "beagle": 6637,
      "toliet": 6638,
      "eiffel": 6639,
      "aero": 6640,
      "cds": 6641,
      "casing": 6642,
      "did": 6643,
      "gay": 6644,
      "mbling": 6645,
      "rared": 6646,
      "tater": 6647,
      "wrench": 6648,
      "anten": 6649,
      "arid": 6650,
      "tots": 6651,
      "isn": 6652,
      "starring": 6653,
      "chased": 6654,
      "raz": 6655,
      "laces": 6656,
      "edible": 6657,
      "lded": 6658,
      "orium": 6659,
      "pless": 6660,
      "whom": 6661,
      "upscale": 6662,
      "adding": 6663,
      "buoy": 6664,
      "grows": 6665,
      "parmes": 6666,
      "sidelines": 6667,
      "ripped": 6668,
      "waking": 6669,
      "poll": 6670,
      "basement": 6671,
      "bedded": 6672,
      "zzi": 6673,
      "chip": 6674,
      "deal": 6675,
      "discard": 6676,
      "testing": 6677,
      "handstand": 6678,
      "diet": 6679,
      "illustr": 6680,
      "scru": 6681,
      "headset": 6682,
      "hilltop": 6683,
      "soil": 6684,
      "stationed": 6685,
      "hatch": 6686,
      "donkeys": 6687,
      "dingy": 6688,
      "choo": 6689,
      "petals": 6690,
      "experi": 6691,
      "breaded": 6692,
      "penn": 6693,
      "jean": 6694,
      "partition": 6695,
      "cleaner": 6696,
      "loads": 6697,
      "sailor": 6698,
      "version": 6699,
      "messages": 6700,
      "friendly": 6701,
      "ivy": 6702,
      "audit": 6703,
      "sodas": 6704,
      "duckling": 6705,
      "guards": 6706,
      "mattresses": 6707,
      "circles": 6708,
      "ordering": 6709,
      "ordered": 6710,
      "dispens": 6711,
      "autograph": 6712,
      "awk": 6713,
      "maybe": 6714,
      "ostriches": 6715,
      "limbs": 6716,
      "pigs": 6717,
      "ension": 6718,
      "combined": 6719,
      "facade": 6720,
      "arabic": 6721,
      "current": 6722,
      "concerned": 6723,
      "marshm": 6724,
      "enthusi": 6725,
      "receiving": 6726,
      "mcdonald": 6727,
      "temple": 6728,
      "amenities": 6729,
      "bmw": 6730,
      "sprawled": 6731,
      "vibrant": 6732,
      "credit": 6733,
      "clydesdale": 6734,
      "transported": 6735,
      "luxurious": 6736,
      "university": 6737,
      "demolished": 6738,
      "parmesan": 6739,
      "auditorium": 6740,
      "3d": 6741,
      "acro": 6742,
      "aves": 6743,
      "mile": 6744,
      "munching": 6745,
      "nick": 6746,
      "olding": 6747,
      "sate": 6748,
      "uting": 6749,
      "wades": 6750,
      "inse": 6751,
      "inos": 6752,
      "onward": 6753,
      "toll": 6754,
      "envelo": 6755,
      "allo": 6756,
      "chases": 6757,
      "ord": 6758,
      "orig": 6759,
      "los": 6760,
      "lost": 6761,
      "tingu": 6762,
      "pecking": 6763,
      "holic": 6764,
      "ups": 6765,
      "unattended": 6766,
      "skim": 6767,
      "womans": 6768,
      "paris": 6769,
      "smen": 6770,
      "ribs": 6771,
      "umber": 6772,
      "compon": 6773,
      "build": 6774,
      "desc": 6775,
      "maple": 6776,
      "handrail": 6777,
      "sings": 6778,
      "agna": 6779,
      "member": 6780,
      "olate": 6781,
      "potty": 6782,
      "ipad": 6783,
      "homeless": 6784,
      "restaurants": 6785,
      "purchase": 6786,
      "jacu": 6787,
      "sheared": 6788,
      "petted": 6789,
      "speckled": 6790,
      "patches": 6791,
      "observes": 6792,
      "marin": 6793,
      "planters": 6794,
      "flys": 6795,
      "breaks": 6796,
      "globe": 6797,
      "swimsuit": 6798,
      "medal": 6799,
      "lids": 6800,
      "lender": 6801,
      "automat": 6802,
      "naps": 6803,
      "clause": 6804,
      "charter": 6805,
      "plug": 6806,
      "cliffs": 6807,
      "billboards": 6808,
      "shutters": 6809,
      "obstacles": 6810,
      "linked": 6811,
      "seaside": 6812,
      "alcoholic": 6813,
      "clustered": 6814,
      "youths": 6815,
      "amazing": 6816,
      "ifier": 6817,
      "grasslands": 6818,
      "converse": 6819,
      "missed": 6820,
      "aiming": 6821,
      "lasagna": 6822,
      "ordinary": 6823,
      "blossom": 6824,
      "announ": 6825,
      "lobster": 6826,
      "woolly": 6827,
      "proceed": 6828,
      "wildebeest": 6829,
      "loveseat": 6830,
      "hollywood": 6831,
      "discarded": 6832,
      "awkward": 6833,
      "jacuzzi": 6834,
      "ago": 6835,
      "bru": 6836,
      "citi": 6837,
      "effic": 6838,
      "glu": 6839,
      "gons": 6840,
      "ike": 6841,
      "lun": 6842,
      "nude": 6843,
      "ports": 6844,
      "sley": 6845,
      "wish": 6846,
      "reign": 6847,
      "ism": 6848,
      "strolling": 6849,
      "alter": 6850,
      "etc": 6851,
      "manu": 6852,
      "sequ": 6853,
      "locks": 6854,
      "looms": 6855,
      "hop": 6856,
      "unident": 6857,
      "parsley": 6858,
      "wagons": 6859,
      "moved": 6860,
      "picket": 6861,
      "puffy": 6862,
      "outlet": 6863,
      "eatery": 6864,
      "winery": 6865,
      "heye": 6866,
      "fired": 6867,
      "sands": 6868,
      "years": 6869,
      "concept": 6870,
      "apparent": 6871,
      "fireworks": 6872,
      "plac": 6873,
      "angels": 6874,
      "slat": 6875,
      "study": 6876,
      "rent": 6877,
      "guides": 6878,
      "visiting": 6879,
      "rains": 6880,
      "creative": 6881,
      "placemat": 6882,
      "workshop": 6883,
      "istine": 6884,
      "dering": 6885,
      "artist": 6886,
      "pristine": 6887,
      "minton": 6888,
      "strand": 6889,
      "stairwell": 6890,
      "creamy": 6891,
      "stered": 6892,
      "freez": 6893,
      "seaweed": 6894,
      "booze": 6895,
      "steaming": 6896,
      "sprinkle": 6897,
      "snake": 6898,
      "boulder": 6899,
      "celebrates": 6900,
      "embedded": 6901,
      "melting": 6902,
      "ditch": 6903,
      "cotton": 6904,
      "trimming": 6905,
      "arrives": 6906,
      "africa": 6907,
      "pockets": 6908,
      "bloody": 6909,
      "badminton": 6910,
      "inspects": 6911,
      "avocad": 6912,
      "domed": 6913,
      "source": 6914,
      "plums": 6915,
      "bubbles": 6916,
      "perfectly": 6917,
      "intensely": 6918,
      "fisher": 6919,
      "fisheye": 6920,
      "exercise": 6921,
      "skaters": 6922,
      "pooh": 6923,
      "landscaping": 6924,
      "leftover": 6925,
      "protruding": 6926,
      "teacher": 6927,
      "maintained": 6928,
      "technology": 6929,
      "waterskiing": 6930,
      "scaffolding": 6931,
      "satell": 6932,
      "automatic": 6933,
      "13": 6934,
      "5th": 6935,
      "brun": 6936,
      "cider": 6937,
      "evil": 6938,
      "gree": 6939,
      "hn": 6940,
      "hus": 6941,
      "jes": 6942,
      "kha": 6943,
      "song": 6944,
      "scot": 6945,
      "turban": 6946,
      "wars": 6947,
      "yed": 6948,
      "zones": 6949,
      "infield": 6950,
      "install": 6951,
      "tha": 6952,
      "armo": 6953,
      "theat": 6954,
      "isine": 6955,
      "witha": 6956,
      "chim": 6957,
      "labra": 6958,
      "launching": 6959,
      "ckling": 6960,
      "seclu": 6961,
      "why": 6962,
      "beet": 6963,
      "beets": 6964,
      "hope": 6965,
      "holing": 6966,
      "task": 6967,
      "dod": 6968,
      "parat": 6969,
      "grains": 6970,
      "tender": 6971,
      "cation": 6972,
      "moose": 6973,
      "fox": 6974,
      "focal": 6975,
      "liber": 6976,
      "pus": 6977,
      "compar": 6978,
      "motorists": 6979,
      "desolate": 6980,
      "picturesque": 6981,
      "dia": 6982,
      "dips": 6983,
      "shoot": 6984,
      "formed": 6985,
      "hygi": 6986,
      "slats": 6987,
      "sloped": 6988,
      "spilled": 6989,
      "spending": 6990,
      "panels": 6991,
      "barking": 6992,
      "jetliners": 6993,
      "riverbank": 6994,
      "cedes": 6995,
      "photography": 6996,
      "battery": 6997,
      "joy": 6998,
      "asts": 6999,
      "crashed": 7000,
      "crashes": 7001,
      "seeming": 7002,
      "curtained": 7003,
      "blenders": 7004,
      "fitted": 7005,
      "antiques": 7006,
      "shipping": 7007,
      "turf": 7008,
      "ornately": 7009,
      "guitars": 7010,
      "protect": 7011,
      "organic": 7012,
      "notebooks": 7013,
      "tinfoil": 7014,
      "suspend": 7015,
      "hungry": 7016,
      "warmly": 7017,
      "copper": 7018,
      "keeping": 7019,
      "interested": 7020,
      "receip": 7021,
      "cocktail": 7022,
      "altitude": 7023,
      "possible": 7024,
      "remodeling": 7025,
      "elaborately": 7026,
      "tissues": 7027,
      "rabilia": 7028,
      "mailbox": 7029,
      "tilting": 7030,
      "detailed": 7031,
      "aqua": 7032,
      "sipping": 7033,
      "proudly": 7034,
      "pleasant": 7035,
      "billowing": 7036,
      "departing": 7037,
      "success": 7038,
      "abundance": 7039,
      "raisins": 7040,
      "memorabilia": 7041,
      "razor": 7042,
      "jesus": 7043,
      "seemingly": 7044,
      "ack": 7045,
      "ea": 7046,
      "heating": 7047,
      "kio": 7048,
      "mam": 7049,
      "mari": 7050,
      "ole": 7051,
      "slender": 7052,
      "uneat": 7053,
      "vig": 7054,
      "vul": 7055,
      "wan": 7056,
      "infront": 7057,
      "thi": 7058,
      "remodel": 7059,
      "restored": 7060,
      "topless": 7061,
      "wife": 7062,
      "stab": 7063,
      "strung": 7064,
      "manual": 7065,
      "loom": 7066,
      "based": 7067,
      "pews": 7068,
      "hog": 7069,
      "ffle": 7070,
      "pawing": 7071,
      "surfa": 7072,
      "heron": 7073,
      "plans": 7074,
      "skill": 7075,
      "dispo": 7076,
      "distorted": 7077,
      "offering": 7078,
      "feild": 7079,
      "handheld": 7080,
      "photoshopped": 7081,
      "apen": 7082,
      "appointed": 7083,
      "apparat": 7084,
      "countries": 7085,
      "favor": 7086,
      "lincol": 7087,
      "blvd": 7088,
      "elbow": 7089,
      "merry": 7090,
      "rushing": 7091,
      "leaking": 7092,
      "rounds": 7093,
      "gazes": 7094,
      "creme": 7095,
      "creature": 7096,
      "juggling": 7097,
      "join": 7098,
      "cooker": 7099,
      "cuddled": 7100,
      "cuisine": 7101,
      "scenes": 7102,
      "flames": 7103,
      "sticky": 7104,
      "saucers": 7105,
      "balding": 7106,
      "takeout": 7107,
      "teammates": 7108,
      "unches": 7109,
      "gripping": 7110,
      "windsurfer": 7111,
      "happen": 7112,
      "drawings": 7113,
      "piercing": 7114,
      "external": 7115,
      "formations": 7116,
      "america": 7117,
      "competitor": 7118,
      "streaming": 7119,
      "boulev": 7120,
      "tuna": 7121,
      "serviced": 7122,
      "parake": 7123,
      "sprays": 7124,
      "collared": 7125,
      "onlooker": 7126,
      "keeps": 7127,
      "faucets": 7128,
      "fatig": 7129,
      "collect": 7130,
      "lipstick": 7131,
      "antelopes": 7132,
      "penguins": 7133,
      "appetizing": 7134,
      "nuzzle": 7135,
      "reveals": 7136,
      "fuel": 7137,
      "southwest": 7138,
      "investig": 7139,
      "gorilla": 7140,
      "chalkboard": 7141,
      "orchard": 7142,
      "gulls": 7143,
      "bomber": 7144,
      "poorly": 7145,
      "congregate": 7146,
      "concentrating": 7147,
      "zoom": 7148,
      "fronts": 7149,
      "lantern": 7150,
      "senior": 7151,
      "trench": 7152,
      "bandanna": 7153,
      "dispensers": 7154,
      "reigns": 7155,
      "avocados": 7156,
      "husband": 7157,
      "secluded": 7158,
      "liberty": 7159,
      "hygiene": 7160,
      "kiosk": 7161,
      "uneaten": 7162,
      "favorite": 7163,
      "lincoln": 7164,
      "boulevard": 7165,
      "aver": 7166,
      "cities": 7167,
      "dv": 7168,
      "det": 7169,
      "dut": 7170,
      "deter": 7171,
      "fas": 7172,
      "ko": 7173,
      "kore": 7174,
      "lled": 7175,
      "pom": 7176,
      "pome": 7177,
      "tiling": 7178,
      "vad": 7179,
      "want": 7180,
      "wade": 7181,
      "inser": 7182,
      "thora": 7183,
      "stark": 7184,
      "charm": 7185,
      "lapel": 7186,
      "escor": 7187,
      "boar": 7188,
      "mangoes": 7189,
      "plethora": 7190,
      "igan": 7191,
      "unopened": 7192,
      "streak": 7193,
      "motif": 7194,
      "blackberry": 7195,
      "ght": 7196,
      "overflowing": 7197,
      "walker": 7198,
      "firemen": 7199,
      "firefighters": 7200,
      "colt": 7201,
      "days": 7202,
      "saw": 7203,
      "solit": 7204,
      "broke": 7205,
      "guided": 7206,
      "stuffs": 7207,
      "spider": 7208,
      "international": 7209,
      "closure": 7210,
      "tvs": 7211,
      "canes": 7212,
      "canyon": 7213,
      "creating": 7214,
      "jail": 7215,
      "sheering": 7216,
      "armchair": 7217,
      "jud": 7218,
      "batteries": 7219,
      "extingu": 7220,
      "attachment": 7221,
      "shoppers": 7222,
      "ively": 7223,
      "crafting": 7224,
      "spotless": 7225,
      "acces": 7226,
      "centered": 7227,
      "profession": 7228,
      "temporary": 7229,
      "chops": 7230,
      "advertises": 7231,
      "minivan": 7232,
      "hips": 7233,
      "turkeys": 7234,
      "waiter": 7235,
      "butterflies": 7236,
      "completing": 7237,
      "protesters": 7238,
      "notepad": 7239,
      "muscle": 7240,
      "wrappers": 7241,
      "cigarettes": 7242,
      "jerseys": 7243,
      "seashore": 7244,
      "glide": 7245,
      "emerging": 7246,
      "hearty": 7247,
      "rhinos": 7248,
      "gazelles": 7249,
      "demonstrating": 7250,
      "tattooed": 7251,
      "chubby": 7252,
      "attendant": 7253,
      "duffle": 7254,
      "violin": 7255,
      "rumpled": 7256,
      "footed": 7257,
      "dangerous": 7258,
      "goblets": 7259,
      "pumps": 7260,
      "dolph": 7261,
      "eagerly": 7262,
      "prominent": 7263,
      "exposure": 7264,
      "jalapen": 7265,
      "antenna": 7266,
      "ducklings": 7267,
      "marshmallows": 7268,
      "acrobat": 7269,
      "suspenders": 7270,
      "ah": 7271,
      "ajar": 7272,
      "binder": 7273,
      "dummy": 7274,
      "gain": 7275,
      "hate": 7276,
      "mand": 7277,
      "mim": 7278,
      "nin": 7279,
      "nun": 7280,
      "nunch": 7281,
      "sin": 7282,
      "sche": 7283,
      "sons": 7284,
      "tights": 7285,
      "uary": 7286,
      "inv": 7287,
      "attic": 7288,
      "lecture": 7289,
      "reco": 7290,
      "isters": 7291,
      "chute": 7292,
      "chunk": 7293,
      "ramid": 7294,
      "loving": 7295,
      "baord": 7296,
      "tale": 7297,
      "tagging": 7298,
      "sham": 7299,
      "thermom": 7300,
      "pliers": 7301,
      "asc": 7302,
      "streetcar": 7303,
      "rivers": 7304,
      "pavil": 7305,
      "lugg": 7306,
      "redible": 7307,
      "eleven": 7308,
      "dell": 7309,
      "options": 7310,
      "brace": 7311,
      "flop": 7312,
      "fact": 7313,
      "skylight": 7314,
      "dreary": 7315,
      "dressers": 7316,
      "strikes": 7317,
      "sug": 7318,
      "created": 7319,
      "exchanging": 7320,
      "jogging": 7321,
      "attacking": 7322,
      "prices": 7323,
      "mint": 7324,
      "march": 7325,
      "pyramid": 7326,
      "flatscreen": 7327,
      "onda": 7328,
      "eggplant": 7329,
      "cyl": 7330,
      "media": 7331,
      "avoid": 7332,
      "earphones": 7333,
      "pepperon": 7334,
      "cardinal": 7335,
      "wares": 7336,
      "signaling": 7337,
      "iastic": 7338,
      "railings": 7339,
      "protesting": 7340,
      "arrangements": 7341,
      "guarding": 7342,
      "filtered": 7343,
      "coastline": 7344,
      "fixings": 7345,
      "procession": 7346,
      "shares": 7347,
      "rectangle": 7348,
      "flavor": 7349,
      "nurse": 7350,
      "sample": 7351,
      "knobs": 7352,
      "guns": 7353,
      "spice": 7354,
      "incredible": 7355,
      "businessmen": 7356,
      "confused": 7357,
      "peripher": 7358,
      "sliver": 7359,
      "pacific": 7360,
      "mossy": 7361,
      "enthusiastic": 7362,
      "provides": 7363,
      "clutching": 7364,
      "sponge": 7365,
      "shaker": 7366,
      "exhaust": 7367,
      "citizen": 7368,
      "apparently": 7369,
      "placid": 7370,
      "satellite": 7371,
      "theatre": 7372,
      "chimney": 7373,
      "labrador": 7374,
      "apparatus": 7375,
      "dvds": 7376,
      "pomegran": 7377,
      "25": 7378,
      "40": 7379,
      "60": 7380,
      "broom": 7381,
      "crush": 7382,
      "dant": 7383,
      "eth": 7384,
      "fy": 7385,
      "god": 7386,
      "hedges": 7387,
      "mart": 7388,
      "ota": 7389,
      "oars": 7390,
      "pard": 7391,
      "scro": 7392,
      "wer": 7393,
      "ys": 7394,
      "zily": 7395,
      "inn": 7396,
      "thank": 7397,
      "once": 7398,
      "onna": 7399,
      "sten": 7400,
      "chow": 7401,
      "lav": 7402,
      "lava": 7403,
      "lazily": 7404,
      "outer": 7405,
      "ckoo": 7406,
      "gears": 7407,
      "upstairs": 7408,
      "sking": 7409,
      "trade": 7410,
      "uristic": 7411,
      "additional": 7412,
      "veled": 7413,
      "ffod": 7414,
      "iler": 7415,
      "paired": 7416,
      "pamph": 7417,
      "caring": 7418,
      "mop": 7419,
      "snowmobile": 7420,
      "signed": 7421,
      "impress": 7422,
      "ctic": 7423,
      "skii": 7424,
      "develo": 7425,
      "maid": 7426,
      "confin": 7427,
      "underwater": 7428,
      "scallo": 7429,
      "stoop": 7430,
      "dries": 7431,
      "passage": 7432,
      "passanger": 7433,
      "brings": 7434,
      "cheering": 7435,
      "vacy": 7436,
      "vacation": 7437,
      "differently": 7438,
      "mercedes": 7439,
      "crowding": 7440,
      "traveler": 7441,
      "wiimote": 7442,
      "monkeys": 7443,
      "interact": 7444,
      "curl": 7445,
      "clusters": 7446,
      "due": 7447,
      "modest": 7448,
      "explo": 7449,
      "shaw": 7450,
      "cuckoo": 7451,
      "sible": 7452,
      "assisting": 7453,
      "squin": 7454,
      "accent": 7455,
      "reflections": 7456,
      "designated": 7457,
      "netting": 7458,
      "mitive": 7459,
      "dramat": 7460,
      "straps": 7461,
      "carpeting": 7462,
      "nail": 7463,
      "daffod": 7464,
      "bought": 7465,
      "checkerboard": 7466,
      "occas": 7467,
      "finishes": 7468,
      "multitude": 7469,
      "connecting": 7470,
      "basins": 7471,
      "campus": 7472,
      "privacy": 7473,
      "primitive": 7474,
      "adorns": 7475,
      "kayaking": 7476,
      "twisted": 7477,
      "motocross": 7478,
      "rapid": 7479,
      "flushing": 7480,
      "gorge": 7481,
      "quilted": 7482,
      "manicured": 7483,
      "easel": 7484,
      "fatigues": 7485,
      "solitary": 7486,
      "extinguis": 7487,
      "scheme": 7488,
      "4th": 7489,
      "aid": 7490,
      "bout": 7491,
      "bour": 7492,
      "bones": 7493,
      "civ": 7494,
      "dic": 7495,
      "die": 7496,
      "dying": 7497,
      "filing": 7498,
      "gap": 7499,
      "ht": 7500,
      "slight": 7501,
      "tand": 7502,
      "tho": 7503,
      "erature": 7504,
      "toes": 7505,
      "wid": 7506,
      "align": 7507,
      "ida": 7508,
      "loaves": 7509,
      "bale": 7510,
      "bass": 7511,
      "whale": 7512,
      "hoses": 7513,
      "tacle": 7514,
      "upcoming": 7515,
      "uncovered": 7516,
      "uncut": 7517,
      "unction": 7518,
      "unloaded": 7519,
      "sher": 7520,
      "bucking": 7521,
      "aside": 7522,
      "coins": 7523,
      "rich": 7524,
      "closing": 7525,
      "closer": 7526,
      "pause": 7527,
      "reddish": 7528,
      "flan": 7529,
      "flated": 7530,
      "snoo": 7531,
      "blading": 7532,
      "likes": 7533,
      "baseballs": 7534,
      "winning": 7535,
      "bathrooms": 7536,
      "dyed": 7537,
      "ctuary": 7538,
      "skiies": 7539,
      "test": 7540,
      "ulated": 7541,
      "fills": 7542,
      "birdhouse": 7543,
      "perhap": 7544,
      "bowtie": 7545,
      "county": 7546,
      "sloping": 7547,
      "bookcases": 7548,
      "highly": 7549,
      "remove": 7550,
      "paints": 7551,
      "barred": 7552,
      "ials": 7553,
      "armed": 7554,
      "bridges": 7555,
      "judge": 7556,
      "knifes": 7557,
      "hairbrush": 7558,
      "explain": 7559,
      "cubes": 7560,
      "artis": 7561,
      "statute": 7562,
      "flame": 7563,
      "wrink": 7564,
      "access": 7565,
      "servings": 7566,
      "teammate": 7567,
      "washes": 7568,
      "toasting": 7569,
      "clips": 7570,
      "vertically": 7571,
      "suppor": 7572,
      "speedboat": 7573,
      "casts": 7574,
      "dawn": 7575,
      "lemonade": 7576,
      "sanctuary": 7577,
      "rubble": 7578,
      "peek": 7579,
      "embank": 7580,
      "princess": 7581,
      "sony": 7582,
      "magnifying": 7583,
      "filth": 7584,
      "filmed": 7585,
      "calmly": 7586,
      "projected": 7587,
      "reclines": 7588,
      "needed": 7589,
      "mayo": 7590,
      "eighteen": 7591,
      "nurses": 7592,
      "gesturing": 7593,
      "damage": 7594,
      "harnessed": 7595,
      "thought": 7596,
      "gymnas": 7597,
      "futuristic": 7598,
      "victory": 7599,
      "whites": 7600,
      "quarter": 7601,
      "growth": 7602,
      "yachts": 7603,
      "pacifier": 7604,
      "article": 7605,
      "fifth": 7606,
      "wilted": 7607,
      "goblet": 7608,
      "congratulations": 7609,
      "crisp": 7610,
      "obscured": 7611,
      "cuddles": 7612,
      "aeroplane": 7613,
      "components": 7614,
      "glue": 7615,
      "vulture": 7616,
      "thicket": 7617,
      "surfaces": 7618,
      "korean": 7619,
      "thermometer": 7620,
      "pavilion": 7621,
      "pepperonis": 7622,
      "daffodils": 7623,
      "occasion": 7624,
      "extinguisher": 7625,
      "perhaps": 7626,
      "gymnasium": 7627,
      "350": 7628,
      "47": 7629,
      "55": 7630,
      "acamo": 7631,
      "clapping": 7632,
      "fee": 7633,
      "ghost": 7634,
      "honda": 7635,
      "mn": 7636,
      "mut": 7637,
      "mist": 7638,
      "mary": 7639,
      "nd": 7640,
      "oll": 7641,
      "sick": 7642,
      "tins": 7643,
      "went": 7644,
      "xim": 7645,
      "inspect": 7646,
      "onial": 7647,
      "eria": 7648,
      "react": 7649,
      "records": 7650,
      "reacts": 7651,
      "toe": 7652,
      "iser": 7653,
      "role": 7654,
      "ented": 7655,
      "alou": 7656,
      "rafts": 7657,
      "lago": 7658,
      "ladle": 7659,
      "mango": 7660,
      "manner": 7661,
      "iders": 7662,
      "idling": 7663,
      "neg": 7664,
      "bales": 7665,
      "updated": 7666,
      "ards": 7667,
      "icated": 7668,
      "untidy": 7669,
      "verted": 7670,
      "adds": 7671,
      "plus": 7672,
      "iest": 7673,
      "coordin": 7674,
      "grace": 7675,
      "grafit": 7676,
      "ilts": 7677,
      "walnuts": 7678,
      "calen": 7679,
      "ridor": 7680,
      "ams": 7681,
      "mot": 7682,
      "lick": 7683,
      "forty": 7684,
      "rowboats": 7685,
      "urely": 7686,
      "wee": 7687,
      "imple": 7688,
      "pizzeria": 7689,
      "hea": 7690,
      "tled": 7691,
      "tles": 7692,
      "depart": 7693,
      "decent": 7694,
      "grounds": 7695,
      "disorganized": 7696,
      "lasso": 7697,
      "brake": 7698,
      "offspring": 7699,
      "crock": 7700,
      "crops": 7701,
      "flops": 7702,
      "perching": 7703,
      "corpor": 7704,
      "corridor": 7705,
      "surfboarder": 7706,
      "goo": 7707,
      "cellar": 7708,
      "colonial": 7709,
      "drizzled": 7710,
      "blouse": 7711,
      "jumper": 7712,
      "sack": 7713,
      "lotion": 7714,
      "sock": 7715,
      "solid": 7716,
      "tubes": 7717,
      "hanged": 7718,
      "fourth": 7719,
      "wineglass": 7720,
      "cling": 7721,
      "montage": 7722,
      "matched": 7723,
      "barrow": 7724,
      "create": 7725,
      "ishing": 7726,
      "pesto": 7727,
      "cube": 7728,
      "humans": 7729,
      "flashing": 7730,
      "chocolates": 7731,
      "polished": 7732,
      "patty": 7733,
      "squad": 7734,
      "intent": 7735,
      "grated": 7736,
      "padded": 7737,
      "quest": 7738,
      "lingerie": 7739,
      "chopper": 7740,
      "pallet": 7741,
      "charge": 7742,
      "bulb": 7743,
      "protecting": 7744,
      "entertaining": 7745,
      "scrap": 7746,
      "coastal": 7747,
      "hauls": 7748,
      "tattered": 7749,
      "humorous": 7750,
      "mayonna": 7751,
      "alcove": 7752,
      "samples": 7753,
      "plowing": 7754,
      "retrieving": 7755,
      "embrace": 7756,
      "appetizer": 7757,
      "domin": 7758,
      "latest": 7759,
      "remaining": 7760,
      "destinations": 7761,
      "decals": 7762,
      "peaks": 7763,
      "spilling": 7764,
      "darth": 7765,
      "panorama": 7766,
      "motorcyle": 7767,
      "resembles": 7768,
      "captures": 7769,
      "scout": 7770,
      "novelty": 7771,
      "bringing": 7772,
      "pretzels": 7773,
      "australia": 7774,
      "convenience": 7775,
      "zombie": 7776,
      "effect": 7777,
      "gutter": 7778,
      "cutout": 7779,
      "straightening": 7780,
      "receipt": 7781,
      "fascin": 7782,
      "floppy": 7783,
      "confined": 7784,
      "civil": 7785,
      "embankment": 7786,
      "acamole": 7787,
      "lagoon": 7788,
      "mayonnaise": 7789,
      "3rd": 7790,
      "bil": 7791,
      "cgi": 7792,
      "dj": 7793,
      "dread": 7794,
      "ewe": 7795,
      "fond": 7796,
      "hers": 7797,
      "hump": 7798,
      "iwth": 7799,
      "lou": 7800,
      "lions": 7801,
      "oats": 7802,
      "ponto": 7803,
      "tangled": 7804,
      "ya": 7805,
      "yan": 7806,
      "thirt": 7807,
      "arc": 7808,
      "leis": 7809,
      "alask": 7810,
      "chel": 7811,
      "lazing": 7812,
      "espress": 7813,
      "orio": 7814,
      "orders": 7815,
      "etrack": 7816,
      "seg": 7817,
      "sees": 7818,
      "allig": 7819,
      "badge": 7820,
      "bees": 7821,
      "hoo": 7822,
      "tas": 7823,
      "unpaved": 7824,
      "shit": 7825,
      "shor": 7826,
      "verse": 7827,
      "verdant": 7828,
      "bulding": 7829,
      "asy": 7830,
      "airshow": 7831,
      "parchment": 7832,
      "cosm": 7833,
      "smir": 7834,
      "phill": 7835,
      "rip": 7836,
      "pace": 7837,
      "paign": 7838,
      "ached": 7839,
      "flick": 7840,
      "mohawk": 7841,
      "snowstorm": 7842,
      "surve": 7843,
      "signpost": 7844,
      "youngster": 7845,
      "winnie": 7846,
      "breed": 7847,
      "dye": 7848,
      "overn": 7849,
      "describ": 7850,
      "chicks": 7851,
      "girra": 7852,
      "entre": 7853,
      "appare": 7854,
      "underpass": 7855,
      "coverings": 7856,
      "floss": 7857,
      "cork": 7858,
      "cordless": 7859,
      "suited": 7860,
      "scan": 7861,
      "mounting": 7862,
      "drift": 7863,
      "dripping": 7864,
      "ables": 7865,
      "hydro": 7866,
      "chew": 7867,
      "rackett": 7868,
      "merch": 7869,
      "tuck": 7870,
      "brother": 7871,
      "rendering": 7872,
      "pastel": 7873,
      "guacamole": 7874,
      "longboard": 7875,
      "herder": 7876,
      "portions": 7877,
      "roundabout": 7878,
      "tubs": 7879,
      "steers": 7880,
      "dune": 7881,
      "moder": 7882,
      "lowers": 7883,
      "lowered": 7884,
      "exper": 7885,
      "joining": 7886,
      "joined": 7887,
      "timer": 7888,
      "cust": 7889,
      "forklift": 7890,
      "grins": 7891,
      "newer": 7892,
      "target": 7893,
      "engineer": 7894,
      "accord": 7895,
      "cappu": 7896,
      "blended": 7897,
      "touched": 7898,
      "mitting": 7899,
      "draft": 7900,
      "vegtables": 7901,
      "hiker": 7902,
      "straddling": 7903,
      "dollhouse": 7904,
      "stork": 7905,
      "reflect": 7906,
      "supply": 7907,
      "protection": 7908,
      "protected": 7909,
      "emblem": 7910,
      "crouch": 7911,
      "scarves": 7912,
      "kiwis": 7913,
      "shift": 7914,
      "audio": 7915,
      "canopies": 7916,
      "hippo": 7917,
      "hipsters": 7918,
      "squatted": 7919,
      "sweaters": 7920,
      "textured": 7921,
      "texas": 7922,
      "nike": 7923,
      "measure": 7924,
      "clowns": 7925,
      "heated": 7926,
      "description": 7927,
      "pouch": 7928,
      "1950": 7929,
      "wreck": 7930,
      "maneuvers": 7931,
      "spires": 7932,
      "olympics": 7933,
      "plumbing": 7934,
      "officials": 7935,
      "scooping": 7936,
      "conditions": 7937,
      "generated": 7938,
      "cially": 7939,
      "titled": 7940,
      "doctors": 7941,
      "bathed": 7942,
      "sweeping": 7943,
      "gallery": 7944,
      "magnetic": 7945,
      "smashed": 7946,
      "execut": 7947,
      "selecting": 7948,
      "disgusting": 7949,
      "glaring": 7950,
      "intersecting": 7951,
      "illustration": 7952,
      "brunette": 7953,
      "khaki": 7954,
      "vader": 7955,
      "nunchu": 7956,
      "inviting": 7957,
      "recogn": 7958,
      "lavatory": 7959,
      "gorgeous": 7960,
      "width": 7961,
      "grafitti": 7962,
      "espresso": 7963,
      "describing": 7964,
      "apparel": 7965,
      "15": 7966,
      "6th": 7967,
      "bard": 7968,
      "bree": 7969,
      "earr": 7970,
      "fted": 7971,
      "govern": 7972,
      "hon": 7973,
      "hen": 7974,
      "ii": 7975,
      "jour": 7976,
      "kk": 7977,
      "quit": 7978,
      "sable": 7979,
      "virt": 7980,
      "inno": 7981,
      "ita": 7982,
      "toky": 7983,
      "isha": 7984,
      "rom": 7985,
      "alot": 7986,
      "alike": 7987,
      "omet": 7988,
      "chess": 7989,
      "boom": 7990,
      "boiling": 7991,
      "losing": 7992,
      "sitt": 7993,
      "geisha": 7994,
      "bead": 7995,
      "begging": 7996,
      "igu": 7997,
      "uphol": 7998,
      "unhappy": 7999,
      "urfing": 8000,
      "frit": 8001,
      "gross": 8002,
      "doggy": 8003,
      "cara": 8004,
      "picker": 8005,
      "wea": 8006,
      "foodstuffs": 8007,
      "backward": 8008,
      "torto": 8009,
      "overstuffed": 8010,
      "overweight": 8011,
      "decal": 8012,
      "disney": 8013,
      "frolicking": 8014,
      "pedal": 8015,
      "handful": 8016,
      "handlers": 8017,
      "dial": 8018,
      "appre": 8019,
      "firetrucks": 8020,
      "session": 8021,
      "stories": 8022,
      "plash": 8023,
      "bunched": 8024,
      "preserve": 8025,
      "tian": 8026,
      "solo": 8027,
      "broid": 8028,
      "hazard": 8029,
      "cameraman": 8030,
      "internet": 8031,
      "decorates": 8032,
      "racetrack": 8033,
      "panini": 8034,
      "sucking": 8035,
      "contained": 8036,
      "choose": 8037,
      "sleeves": 8038,
      "ankle": 8039,
      "screened": 8040,
      "bridal": 8041,
      "exact": 8042,
      "expensive": 8043,
      "joke": 8044,
      "cookware": 8045,
      "attach": 8046,
      "patties": 8047,
      "performer": 8048,
      "observ": 8049,
      "fastened": 8050,
      "graffit": 8051,
      "actors": 8052,
      "inspired": 8053,
      "dders": 8054,
      "polaroid": 8055,
      "climate": 8056,
      "devil": 8057,
      "grips": 8058,
      "appropri": 8059,
      "teenaged": 8060,
      "drab": 8061,
      "drags": 8062,
      "hike": 8063,
      "hikers": 8064,
      "nailed": 8065,
      "gondo": 8066,
      "mounds": 8067,
      "writer": 8068,
      "competitors": 8069,
      "spectator": 8070,
      "dropped": 8071,
      "rotting": 8072,
      "scary": 8073,
      "steeples": 8074,
      "backsplash": 8075,
      "rollerblading": 8076,
      "tractors": 8077,
      "quietly": 8078,
      "health": 8079,
      "glare": 8080,
      "examine": 8081,
      "elegantly": 8082,
      "cased": 8083,
      "scope": 8084,
      "apartments": 8085,
      "summit": 8086,
      "artistically": 8087,
      "specialty": 8088,
      "brim": 8089,
      "excitedly": 8090,
      "cantalou": 8091,
      "wrecked": 8092,
      "squirting": 8093,
      "maneuvering": 8094,
      "seasonings": 8095,
      "gotten": 8096,
      "crammed": 8097,
      "dunes": 8098,
      "omelette": 8099,
      "rhinocer": 8100,
      "eastern": 8101,
      "attendants": 8102,
      "orchids": 8103,
      "capital": 8104,
      "blossoms": 8105,
      "energy": 8106,
      "pretzel": 8107,
      "yoga": 8108,
      "conditioner": 8109,
      "gauges": 8110,
      "strainer": 8111,
      "contemplating": 8112,
      "grasping": 8113,
      "smokes": 8114,
      "ferns": 8115,
      "sequence": 8116,
      "greek": 8117,
      "vigorous": 8118,
      "accessible": 8119,
      "luggages": 8120,
      "ethnic": 8121,
      "implements": 8122,
      "flickr": 8123,
      "breeze": 8124,
      "earrings": 8125,
      "tokyo": 8126,
      "appropriate": 8127,
      "cantaloupe": 8128,
      "70": 8129,
      "dach": 8130,
      "dwar": 8131,
      "font": 8132,
      "fthan": 8133,
      "gps": 8134,
      "hide": 8135,
      "junction": 8136,
      "kim": 8137,
      "lilies": 8138,
      "mind": 8139,
      "pred": 8140,
      "punk": 8141,
      "rare": 8142,
      "tart": 8143,
      "tupper": 8144,
      "ono": 8145,
      "aru": 8146,
      "ata": 8147,
      "atm": 8148,
      "relea": 8149,
      "tot": 8150,
      "touring": 8151,
      "isk": 8152,
      "wipes": 8153,
      "engra": 8154,
      "enfor": 8155,
      "alien": 8156,
      "rag": 8157,
      "bodies": 8158,
      "lolli": 8159,
      "never": 8160,
      "nect": 8161,
      "gee": 8162,
      "geomet": 8163,
      "tack": 8164,
      "ssian": 8165,
      "unpacked": 8166,
      "skying": 8167,
      "travers": 8168,
      "add": 8169,
      "budd": 8170,
      "cocks": 8171,
      "grasp": 8172,
      "phere": 8173,
      "rifle": 8174,
      "cay": 8175,
      "cash": 8176,
      "tented": 8177,
      "bye": 8178,
      "bystand": 8179,
      "pages": 8180,
      "lucky": 8181,
      "lufthan": 8182,
      "parka": 8183,
      "surg": 8184,
      "watery": 8185,
      "ruins": 8186,
      "russian": 8187,
      "puzzle": 8188,
      "menus": 8189,
      "greasy": 8190,
      "herb": 8191,
      "torso": 8192,
      "pics": 8193,
      "dew": 8194,
      "defaced": 8195,
      "llama": 8196,
      "walkers": 8197,
      "ulted": 8198,
      "glassed": 8199,
      "fection": 8200,
      "chairlift": 8201,
      "showcasing": 8202,
      "rested": 8203,
      "perpend": 8204,
      "firefighter": 8205,
      "runners": 8206,
      "angeles": 8207,
      "prep": 8208,
      "pretends": 8209,
      "forms": 8210,
      "tial": 8211,
      "valent": 8212,
      "anime": 8213,
      "merchand": 8214,
      "tally": 8215,
      "soaking": 8216,
      "venture": 8217,
      "trink": 8218,
      "coloring": 8219,
      "muzzle": 8220,
      "brushy": 8221,
      "hangings": 8222,
      "doubledecker": 8223,
      "higher": 8224,
      "shelve": 8225,
      "jetway": 8226,
      "duct": 8227,
      "dusted": 8228,
      "jacks": 8229,
      "sheer": 8230,
      "sheered": 8231,
      "shepard": 8232,
      "jugs": 8233,
      "battered": 8234,
      "lowering": 8235,
      "john": 8236,
      "penned": 8237,
      "hula": 8238,
      "silo": 8239,
      "priest": 8240,
      "particular": 8241,
      "assist": 8242,
      "observed": 8243,
      "siding": 8244,
      "grinning": 8245,
      "clipping": 8246,
      "captain": 8247,
      "harry": 8248,
      "grima": 8249,
      "straws": 8250,
      "lunchbox": 8251,
      "wintery": 8252,
      "daily": 8253,
      "claws": 8254,
      "belie": 8255,
      "telephones": 8256,
      "separating": 8257,
      "embroid": 8258,
      "condiment": 8259,
      "sugary": 8260,
      "sugared": 8261,
      "tinted": 8262,
      "chests": 8263,
      "orderly": 8264,
      "bikinis": 8265,
      "kale": 8266,
      "pandas": 8267,
      "fairy": 8268,
      "shared": 8269,
      "sharpen": 8270,
      "accented": 8271,
      "cobbled": 8272,
      "buttoned": 8273,
      "anything": 8274,
      "kisses": 8275,
      "conveyer": 8276,
      "stables": 8277,
      "politic": 8278,
      "dividers": 8279,
      "knob": 8280,
      "badly": 8281,
      "actively": 8282,
      "files": 8283,
      "shredding": 8284,
      "bristles": 8285,
      "hunting": 8286,
      "finely": 8287,
      "buggies": 8288,
      "parasailers": 8289,
      "fudge": 8290,
      "dumping": 8291,
      "ville": 8292,
      "cranberry": 8293,
      "gadget": 8294,
      "sightseeing": 8295,
      "shoots": 8296,
      "nasa": 8297,
      "zipper": 8298,
      "monorail": 8299,
      "lanterns": 8300,
      "skewers": 8301,
      "ccino": 8302,
      "volkswagon": 8303,
      "manufact": 8304,
      "slatted": 8305,
      "mario": 8306,
      "disposable": 8307,
      "jalapenos": 8308,
      "aligned": 8309,
      "calendar": 8310,
      "fondant": 8311,
      "orioles": 8312,
      "cosmet": 8313,
      "accordion": 8314,
      "cappuccino": 8315,
      "government": 8316,
      "appreci": 8317,
      "tupperware": 8318,
      "release": 8319,
      "nectar": 8320,
      "lufthansa": 8321,
      "perpendicular": 8322,
      "merchandise": 8323,
      ",.": 8324,
      "35": 8325,
      "aa": 8326,
      "cil": 8327,
      "ecle": 8328,
      "jou": 8329,
      "kill": 8330,
      "nip": 8331,
      "ux": 8332,
      "vable": 8333,
      "yama": 8334,
      "inverted": 8335,
      "thor": 8336,
      "thee": 8337,
      "recess": 8338,
      "tos": 8339,
      "rods": 8340,
      "please": 8341,
      "ict": 8342,
      "icle": 8343,
      "unload": 8344,
      "shr": 8345,
      "shund": 8346,
      "shorn": 8347,
      "bled": 8348,
      "bles": 8349,
      "address": 8350,
      "adventure": 8351,
      "vein": 8352,
      "terrace": 8353,
      "smear": 8354,
      "snout": 8355,
      "movement": 8356,
      "fronted": 8357,
      "loop": 8358,
      "clement": 8359,
      "ruff": 8360,
      "rugged": 8361,
      "bathers": 8362,
      "planks": 8363,
      "girafee": 8364,
      "ghan": 8365,
      "chill": 8366,
      "mack": 8367,
      "braces": 8368,
      "content": 8369,
      "batman": 8370,
      "showcase": 8371,
      "undergoing": 8372,
      "scu": 8373,
      "scular": 8374,
      "stood": 8375,
      "colander": 8376,
      "aggress": 8377,
      "sling": 8378,
      "chev": 8379,
      "vacu": 8380,
      "engage": 8381,
      "soon": 8382,
      "broch": 8383,
      "stations": 8384,
      "bookstore": 8385,
      "keychain": 8386,
      "urns": 8387,
      "mule": 8388,
      "muscular": 8389,
      "wineglasses": 8390,
      "clump": 8391,
      "childrens": 8392,
      "interest": 8393,
      "curving": 8394,
      "paperback": 8395,
      "videogame": 8396,
      "sectioned": 8397,
      "screw": 8398,
      "usb": 8399,
      "armor": 8400,
      "juicy": 8401,
      "darkness": 8402,
      "flakes": 8403,
      "astro": 8404,
      "forefront": 8405,
      "performed": 8406,
      "garment": 8407,
      "refu": 8408,
      "paths": 8409,
      "erected": 8410,
      "wildly": 8411,
      "hotels": 8412,
      "flyers": 8413,
      "wheeling": 8414,
      "lesson": 8415,
      "swimmer": 8416,
      "tours": 8417,
      "butting": 8418,
      "wedged": 8419,
      "hardware": 8420,
      "sealed": 8421,
      "seaplane": 8422,
      "fitting": 8423,
      "allowing": 8424,
      "further": 8425,
      "diesel": 8426,
      "turbin": 8427,
      "streams": 8428,
      "buttered": 8429,
      "trooper": 8430,
      "waterside": 8431,
      "marbled": 8432,
      "connect": 8433,
      "connection": 8434,
      "myster": 8435,
      "campaign": 8436,
      "filter": 8437,
      "cushioned": 8438,
      "mainly": 8439,
      "witting": 8440,
      "bills": 8441,
      "fabrics": 8442,
      "skinned": 8443,
      "silhouettes": 8444,
      "halved": 8445,
      "motoro": 8446,
      "selections": 8447,
      "occupy": 8448,
      "tuxedos": 8449,
      "chaise": 8450,
      "techni": 8451,
      "plowed": 8452,
      "araunt": 8453,
      "roosters": 8454,
      "marshy": 8455,
      "bounces": 8456,
      "popcorn": 8457,
      "reveal": 8458,
      "raspberry": 8459,
      "flamingo": 8460,
      "viet": 8461,
      "tangerine": 8462,
      "confetti": 8463,
      "bulldo": 8464,
      "slim": 8465,
      "switching": 8466,
      "graveyard": 8467,
      "motorcyl": 8468,
      "windmills": 8469,
      "congreg": 8470,
      "sundae": 8471,
      "continental": 8472,
      "swampy": 8473,
      "packets": 8474,
      "species": 8475,
      "google": 8476,
      "seperate": 8477,
      "respective": 8478,
      "mowed": 8479,
      "insect": 8480,
      "marinara": 8481,
      "scott": 8482,
      "muscles": 8483,
      "suggest": 8484,
      "crushed": 8485,
      "explaining": 8486,
      "artisan": 8487,
      "alaska": 8488,
      "alligator": 8489,
      "nunchuck": 8490,
      "rhinoceros": 8491,
      "dachshund": 8492,
      "geometric": 8493,
      "jackson": 8494,
      "yamaha": 8495,
      "vacuum": 8496,
      "!\"": 8497,
      "\",": 8498,
      ".,": 8499,
      "brought": 8500,
      "cod": 8501,
      "clin": 8502,
      "cresting": 8503,
      "cents": 8504,
      "cia": 8505,
      "dand": 8506,
      "egre": 8507,
      "emitting": 8508,
      "flea": 8509,
      "feta": 8510,
      "flapping": 8511,
      "han": 8512,
      "kang": 8513,
      "kabo": 8514,
      "knight": 8515,
      "ml": 8516,
      "mation": 8517,
      "nour": 8518,
      "sse": 8519,
      "slot": 8520,
      "sorting": 8521,
      "user": 8522,
      "vit": 8523,
      "vice": 8524,
      "vag": 8525,
      "wti": 8526,
      "inity": 8527,
      "inclosure": 8528,
      "thinking": 8529,
      "onts": 8530,
      "aroo": 8531,
      "often": 8532,
      "refresh": 8533,
      "totally": 8534,
      "stle": 8535,
      "ening": 8536,
      "ala": 8537,
      "ald": 8538,
      "ality": 8539,
      "chief": 8540,
      "esome": 8541,
      "bob": 8542,
      "bol": 8543,
      "boad": 8544,
      "locking": 8545,
      "bagu": 8546,
      "ership": 8547,
      "unte": 8548,
      "units": 8549,
      "unripened": 8550,
      "traff": 8551,
      "adilla": 8552,
      "ateur": 8553,
      "theres": 8554,
      "plings": 8555,
      "doc": 8556,
      "cep": 8557,
      "copy": 8558,
      "thatched": 8559,
      "territ": 8560,
      "cath": 8561,
      "umph": 8562,
      "paid": 8563,
      "amateur": 8564,
      "mold": 8565,
      "folder": 8566,
      "nears": 8567,
      "trained": 8568,
      "lier": 8569,
      "forth": 8570,
      "rue": 8571,
      "outskirts": 8572,
      "comical": 8573,
      "giants": 8574,
      "gilded": 8575,
      "imposed": 8576,
      "backing": 8577,
      "heeled": 8578,
      "heights": 8579,
      "overhang": 8580,
      "chipped": 8581,
      "grounded": 8582,
      "frothy": 8583,
      "teaches": 8584,
      "inders": 8585,
      "enters": 8586,
      "conge": 8587,
      "restaraunt": 8588,
      "sci": 8589,
      "scare": 8590,
      "scant": 8591,
      "storefr": 8592,
      "pretend": 8593,
      "passport": 8594,
      "cheon": 8595,
      "teddybear": 8596,
      "stucco": 8597,
      "dirtbike": 8598,
      "saver": 8599,
      "tux": 8600,
      "hitch": 8601,
      "spare": 8602,
      "spout": 8603,
      "spins": 8604,
      "crows": 8605,
      "curry": 8606,
      "videos": 8607,
      "choices": 8608,
      "meatloaf": 8609,
      "knights": 8610,
      "purpose": 8611,
      "posting": 8612,
      "postcard": 8613,
      "turnips": 8614,
      "hairless": 8615,
      "expl": 8616,
      "mousepad": 8617,
      "prison": 8618,
      "triumph": 8619,
      "minor": 8620,
      "subur": 8621,
      "crafted": 8622,
      "mild": 8623,
      "spool": 8624,
      "itious": 8625,
      "draws": 8626,
      "write": 8627,
      "gloved": 8628,
      "freeze": 8629,
      "roofed": 8630,
      "typewriter": 8631,
      "leashed": 8632,
      "relaxed": 8633,
      "gnome": 8634,
      "charcoal": 8635,
      "florida": 8636,
      "protector": 8637,
      "volunte": 8638,
      "exhibition": 8639,
      "indicator": 8640,
      "paraph": 8641,
      "bicycling": 8642,
      "balconies": 8643,
      "prize": 8644,
      "ponytail": 8645,
      "musician": 8646,
      "dancers": 8647,
      "listen": 8648,
      "twir": 8649,
      "halter": 8650,
      "damp": 8651,
      "holidays": 8652,
      "easily": 8653,
      "outfielder": 8654,
      "retrieve": 8655,
      "evergreens": 8656,
      "belongs": 8657,
      "naval": 8658,
      "tortillas": 8659,
      "socialize": 8660,
      "camouflag": 8661,
      "entryway": 8662,
      "confusing": 8663,
      "period": 8664,
      "dumplings": 8665,
      "rodent": 8666,
      "aims": 8667,
      "aimed": 8668,
      "register": 8669,
      "resembling": 8670,
      "spiky": 8671,
      "carvings": 8672,
      "intricately": 8673,
      "tacos": 8674,
      "snapshot": 8675,
      "vessels": 8676,
      "sloppy": 8677,
      "concentrates": 8678,
      "iency": 8679,
      "mcdonalds": 8680,
      "consumed": 8681,
      "asking": 8682,
      "anticipation": 8683,
      "navigates": 8684,
      "respected": 8685,
      "attentively": 8686,
      "dealership": 8687,
      "bruised": 8688,
      "efficiency": 8689,
      "luncheon": 8690,
      "unidentifi": 8691,
      "thai": 8692,
      "armoire": 8693,
      "dodgers": 8694,
      "wanting": 8695,
      "skillfully": 8696,
      "determin": 8697,
      "acrobatic": 8698,
      "peripherals": 8699,
      "enthusiastically": 8700,
      "dramatic": 8701,
      "question": 8702,
      "shorter": 8703,
      "hydrogen": 8704,
      "custard": 8705,
      "virtual": 8706,
      "upholstered": 8707,
      "enforcement": 8708,
      "surgical": 8709,
      "kangaroo": 8710,
      "wtih": 8711,
      "storefronts": 8712,
      "1st": 8713,
      "24": 8714,
      "54": 8715,
      "66": 8716,
      "ax": 8717,
      "aer": 8718,
      "aled": 8719,
      "dc": 8720,
      "dup": 8721,
      "fowl": 8722,
      "gently": 8723,
      "huts": 8724,
      "iing": 8725,
      "lumber": 8726,
      "obl": 8727,
      "sor": 8728,
      "sister": 8729,
      "tp": 8730,
      "uble": 8731,
      "wy": 8732,
      "wro": 8733,
      "yl": 8734,
      "zers": 8735,
      "intr": 8736,
      "inary": 8737,
      "returned": 8738,
      "respon": 8739,
      "isol": 8740,
      "ror": 8741,
      "stur": 8742,
      "stry": 8743,
      "stals": 8744,
      "omin": 8745,
      "orph": 8746,
      "bold": 8747,
      "irs": 8748,
      "sec": 8749,
      "locker": 8750,
      "sities": 8751,
      "neces": 8752,
      "wolf": 8753,
      "whir": 8754,
      "ssy": 8755,
      "unke": 8756,
      "unpeeled": 8757,
      "unison": 8758,
      "peopel": 8759,
      "bulent": 8760,
      "buidling": 8761,
      "parli": 8762,
      "coco": 8763,
      "capa": 8764,
      "causing": 8765,
      "cauc": 8766,
      "tential": 8767,
      "pail": 8768,
      "pausing": 8769,
      "mothers": 8770,
      "snowshoes": 8771,
      "trainers": 8772,
      "limo": 8773,
      "limp": 8774,
      "cleans": 8775,
      "rusting": 8776,
      "comfy": 8777,
      "imac": 8778,
      "utili": 8779,
      "overly": 8780,
      "overloaded": 8781,
      "toiled": 8782,
      "chilli": 8783,
      "ongous": 8784,
      "fied": 8785,
      "yelling": 8786,
      "handsome": 8787,
      "handwritten": 8788,
      "dipped": 8789,
      "mpt": 8790,
      "banister": 8791,
      "quant": 8792,
      "quality": 8793,
      "science": 8794,
      "bunting": 8795,
      "cowgirl": 8796,
      "reader": 8797,
      "shocked": 8798,
      "sheepdog": 8799,
      "elf": 8800,
      "sery": 8801,
      "servers": 8802,
      "serene": 8803,
      "longer": 8804,
      "broccolli": 8805,
      "olor": 8806,
      "interviewed": 8807,
      "bodysuit": 8808,
      "bartender": 8809,
      "coffe": 8810,
      "toyota": 8811,
      "slicer": 8812,
      "toothpicks": 8813,
      "spelled": 8814,
      "derby": 8815,
      "anchor": 8816,
      "attaching": 8817,
      "partner": 8818,
      "performers": 8819,
      "assoc": 8820,
      "garland": 8821,
      "squid": 8822,
      "towns": 8823,
      "erect": 8824,
      "grits": 8825,
      "padding": 8826,
      "mingle": 8827,
      "blend": 8828,
      "blending": 8829,
      "criss": 8830,
      "fashionable": 8831,
      "gardening": 8832,
      "shading": 8833,
      "temperature": 8834,
      "springs": 8835,
      "cruc": 8836,
      "mismatched": 8837,
      "goodies": 8838,
      "extend": 8839,
      "sedan": 8840,
      "turbulent": 8841,
      "saniti": 8842,
      "simply": 8843,
      "shadowy": 8844,
      "stemmed": 8845,
      "patchwork": 8846,
      "bbled": 8847,
      "presses": 8848,
      "actual": 8849,
      "cricket": 8850,
      "fountains": 8851,
      "plugs": 8852,
      "trolleys": 8853,
      "estate": 8854,
      "prior": 8855,
      "suspension": 8856,
      "amounts": 8857,
      "illuminate": 8858,
      "slacks": 8859,
      "links": 8860,
      "strangely": 8861,
      "wakeboarding": 8862,
      "danish": 8863,
      "glows": 8864,
      "anyone": 8865,
      "humongous": 8866,
      "wanders": 8867,
      "willi": 8868,
      "splashes": 8869,
      "collecting": 8870,
      "exciting": 8871,
      "snuggles": 8872,
      "opponents": 8873,
      "nursery": 8874,
      "barbecu": 8875,
      "calls": 8876,
      "technic": 8877,
      "saddles": 8878,
      "future": 8879,
      "sprout": 8880,
      "quote": 8881,
      "parasailer": 8882,
      "seriously": 8883,
      "skulls": 8884,
      "recorder": 8885,
      "ceremonial": 8886,
      "focusing": 8887,
      "moust": 8888,
      "quesadilla": 8889,
      "ification": 8890,
      "stony": 8891,
      "delivered": 8892,
      "articulated": 8893,
      "barricades": 8894,
      "sparkling": 8895,
      "trophies": 8896,
      "exercising": 8897,
      "yaks": 8898,
      "coconuts": 8899,
      "proceeds": 8900,
      "landscaped": 8901,
      "wildebeests": 8902,
      "leftovers": 8903,
      "crispy": 8904,
      "ernalia": 8905,
      "affectionate": 8906,
      "australian": 8907,
      "anticipating": 8908,
      "feasting": 8909,
      "navigate": 8910,
      "involved": 8911,
      "stamp": 8912,
      "scruffy": 8913,
      "autographs": 8914,
      "descends": 8915,
      "citizens": 8916,
      "scallops": 8917,
      "thorough": 8918,
      "snoozing": 8919,
      "ollie": 8920,
      "squadron": 8921,
      "pontoon": 8922,
      "entrees": 8923,
      "gondola": 8924,
      "vigorously": 8925,
      "bystanders": 8926,
      "embroidered": 8927,
      "eclectic": 8928,
      "smeared": 8929,
      "motorola": 8930,
      "congregating": 8931,
      "dandel": 8932,
      "baguette": 8933,
      "territory": 8934,
      "congested": 8935,
      "paraphernalia": 8936,
      "camouflaged": 8937,
      "unidentifiable": 8938,
      "oblong": 8939,
      "necessities": 8940,
      "caucasian": 8941,
      "associ": 8942,
      "747": 8943,
      "aes": 8944,
      "afro": 8945,
      "cs": 8946,
      "ev": 8947,
      "egy": 8948,
      "fou": 8949,
      "fic": 8950,
      "hes": 8951,
      "mare": 8952,
      "nute": 8953,
      "pate": 8954,
      "plot": 8955,
      "rily": 8956,
      "ritious": 8957,
      "sage": 8958,
      "slush": 8959,
      "tch": 8960,
      "tund": 8961,
      "vivid": 8962,
      "inscri": 8963,
      "thou": 8964,
      "atri": 8965,
      "atures": 8966,
      "itating": 8967,
      "tote": 8968,
      "ision": 8969,
      "isley": 8970,
      "withe": 8971,
      "widow": 8972,
      "rolet": 8973,
      "strolls": 8974,
      "stilts": 8975,
      "aloft": 8976,
      "lakes": 8977,
      "outing": 8978,
      "escape": 8979,
      "lop": 8980,
      "hover": 8981,
      "hoping": 8982,
      "tab": 8983,
      "tapes": 8984,
      "tailed": 8985,
      "ication": 8986,
      "unic": 8987,
      "unseen": 8988,
      "unbuttoned": 8989,
      "shu": 8990,
      "shinning": 8991,
      "thermos": 8992,
      "docum": 8993,
      "veil": 8994,
      "rims": 8995,
      "walnut": 8996,
      "coup": 8997,
      "tened": 8998,
      "wagen": 8999,
      "paul": 9000,
      "paisley": 9001,
      "doggie": 9002,
      "poop": 9003,
      "popping": 9004,
      "potential": 9005,
      "fling": 9006,
      "fliers": 9007,
      "carves": 9008,
      "surboard": 9009,
      "youngsters": 9010,
      "outcro": 9011,
      "compl": 9012,
      "inks": 9013,
      "imag": 9014,
      "impro": 9015,
      "greenish": 9016,
      "giraffee": 9017,
      "hell": 9018,
      "overhand": 9019,
      "lapsed": 9020,
      "disrepair": 9021,
      "frolic": 9022,
      "ulum": 9023,
      "fies": 9024,
      "compute": 9025,
      "offered": 9026,
      "icecream": 9027,
      "windowed": 9028,
      "yellowish": 9029,
      "contrails": 9030,
      "confection": 9031,
      "bann": 9032,
      "bangs": 9033,
      "underbrush": 9034,
      "treed": 9035,
      "angrily": 9036,
      "restur": 9037,
      "fires": 9038,
      "corned": 9039,
      "corona": 9040,
      "lyn": 9041,
      "faux": 9042,
      "winged": 9043,
      "colgate": 9044,
      "tiara": 9045,
      "vaulted": 9046,
      "enger": 9047,
      "mountaintop": 9048,
      "sunken": 9049,
      "sunbathers": 9050,
      "gushing": 9051,
      "means": 9052,
      "proces": 9053,
      "props": 9054,
      "propping": 9055,
      "proxim": 9056,
      "igerator": 9057,
      "monks": 9058,
      "mating": 9059,
      "canisters": 9060,
      "dusting": 9061,
      "ankles": 9062,
      "creation": 9063,
      "cuting": 9064,
      "staying": 9065,
      "greyhound": 9066,
      "cleared": 9067,
      "struggling": 9068,
      "marily": 9069,
      "subje": 9070,
      "crabs": 9071,
      "afghan": 9072,
      "distin": 9073,
      "neckties": 9074,
      "calzone": 9075,
      "butts": 9076,
      "messed": 9077,
      "messily": 9078,
      "clipped": 9079,
      "bakers": 9080,
      "avo": 9081,
      "producing": 9082,
      "roofs": 9083,
      "ivory": 9084,
      "supports": 9085,
      "autom": 9086,
      "crude": 9087,
      "systems": 9088,
      "extension": 9089,
      "teacup": 9090,
      "outfitted": 9091,
      "milkshake": 9092,
      "writes": 9093,
      "waitress": 9094,
      "clas": 9095,
      "terminals": 9096,
      "taxider": 9097,
      "bulbs": 9098,
      "ducky": 9099,
      "falcon": 9100,
      "peeping": 9101,
      "empire": 9102,
      "delicate": 9103,
      "stirred": 9104,
      "identification": 9105,
      "momma": 9106,
      "powdery": 9107,
      "flooding": 9108,
      "blindfolded": 9109,
      "parasails": 9110,
      "izable": 9111,
      "cobblestones": 9112,
      "arrived": 9113,
      "campground": 9114,
      "daughters": 9115,
      "twp": 9116,
      "twisting": 9117,
      "sumo": 9118,
      "calling": 9119,
      "realistic": 9120,
      "chandeliers": 9121,
      "smell": 9122,
      "adole": 9123,
      "crumpled": 9124,
      "visitor": 9125,
      "blooms": 9126,
      "nutritious": 9127,
      "peacocks": 9128,
      "satin": 9129,
      "satchel": 9130,
      "roots": 9131,
      "detail": 9132,
      "nuzzles": 9133,
      "changed": 9134,
      "deciding": 9135,
      "contrasting": 9136,
      "shavings": 9137,
      "instructing": 9138,
      "domestic": 9139,
      "voy": 9140,
      "articles": 9141,
      "flashlight": 9142,
      "transparent": 9143,
      "property": 9144,
      "properly": 9145,
      "pendulum": 9146,
      "shakers": 9147,
      "squeezed": 9148,
      "zombies": 9149,
      "seperated": 9150,
      "admire": 9151,
      "nesses": 9152,
      "enthusiasts": 9153,
      "envelope": 9154,
      "descend": 9155,
      "awkwardly": 9156,
      "tasks": 9157,
      "diapers": 9158,
      "duty": 9159,
      "professionals": 9160,
      "dolphin": 9161,
      "thanks": 9162,
      "pamphlets": 9163,
      "impressive": 9164,
      "squinting": 9165,
      "tandem": 9166,
      "supporting": 9167,
      "vultures": 9168,
      "leisurely": 9169,
      "merchant": 9170,
      "recognizable": 9171,
      "innocent": 9172,
      "graffitti": 9173,
      "kimono": 9174,
      "trinkets": 9175,
      "shrine": 9176,
      "ruffled": 9177,
      "chevrolet": 9178,
      "bulldozer": 9179,
      "egret": 9180,
      "vitam": 9181,
      "duplic": 9182,
      "wrote": 9183,
[...]
